{
  "version": "1.0",
  "truncation": null,
  "padding": {
    "strategy": "BatchLongest",
    "direction": "Right",
    "pad_to_multiple_of": null,
    "pad_id": 3,
    "pad_type_id": 0,
    "pad_token": "[PAD]"
  },
  "added_tokens": [
    {
      "id": 0,
      "content": "[START]",
      "single_word": false,
      "lstrip": false,
      "rstrip": false,
      "normalized": false,
      "special": true
    },
    {
      "id": 1,
      "content": "[STOP]",
      "single_word": false,
      "lstrip": false,
      "rstrip": false,
      "normalized": false,
      "special": true
    },
    {
      "id": 2,
      "content": "[UNK]",
      "single_word": false,
      "lstrip": false,
      "rstrip": false,
      "normalized": false,
      "special": true
    },
    {
      "id": 3,
      "content": "[PAD]",
      "single_word": false,
      "lstrip": false,
      "rstrip": false,
      "normalized": false,
      "special": true
    },
    {
      "id": 4,
      "content": "[SEP]",
      "single_word": false,
      "lstrip": false,
      "rstrip": false,
      "normalized": false,
      "special": true
    },
    {
      "id": 5,
      "content": "[CLS]",
      "single_word": false,
      "lstrip": false,
      "rstrip": false,
      "normalized": false,
      "special": true
    },
    {
      "id": 6,
      "content": "[MASK]",
      "single_word": false,
      "lstrip": false,
      "rstrip": false,
      "normalized": false,
      "special": true
    },
    {
      "id": 7,
      "content": "<bn>",
      "single_word": false,
      "lstrip": false,
      "rstrip": false,
      "normalized": false,
      "special": true
    }
  ],
  "normalizer": {
    "type": "Sequence",
    "normalizers": [
      {
        "type": "NFKC"
      }
    ]
  },
  "pre_tokenizer": {
    "type": "ByteLevel",
    "add_prefix_space": true,
    "trim_offsets": true,
    "use_regex": true
  },
  "post_processor": {
    "type": "TemplateProcessing",
    "single": [
      {
        "SpecialToken": {
          "id": "<bn>",
          "type_id": 0
        }
      },
      {
        "SpecialToken": {
          "id": "[START]",
          "type_id": 0
        }
      },
      {
        "Sequence": {
          "id": "A",
          "type_id": 0
        }
      },
      {
        "SpecialToken": {
          "id": "[STOP]",
          "type_id": 0
        }
      }
    ],
    "pair": [
      {
        "SpecialToken": {
          "id": "<bn>",
          "type_id": 0
        }
      },
      {
        "SpecialToken": {
          "id": "[START]",
          "type_id": 0
        }
      },
      {
        "Sequence": {
          "id": "A",
          "type_id": 0
        }
      },
      {
        "SpecialToken": {
          "id": "[SEP]",
          "type_id": 0
        }
      },
      {
        "Sequence": {
          "id": "B",
          "type_id": 0
        }
      },
      {
        "SpecialToken": {
          "id": "[STOP]",
          "type_id": 0
        }
      }
    ],
    "special_tokens": {
      "<bn>": {
        "id": "<bn>",
        "ids": [
          7
        ],
        "tokens": [
          "<bn>"
        ]
      },
      "[SEP]": {
        "id": "[SEP]",
        "ids": [
          4
        ],
        "tokens": [
          "[SEP]"
        ]
      },
      "[START]": {
        "id": "[START]",
        "ids": [
          0
        ],
        "tokens": [
          "[START]"
        ]
      },
      "[STOP]": {
        "id": "[STOP]",
        "ids": [
          1
        ],
        "tokens": [
          "[STOP]"
        ]
      }
    }
  },
  "decoder": {
    "type": "ByteLevel",
    "add_prefix_space": true,
    "trim_offsets": true,
    "use_regex": true
  },
  "model": {
    "type": "Unigram",
    "unk_id": 2,
    "vocab": [
      [
        "[START]",
        0.0
      ],
      [
        "[STOP]",
        0.0
      ],
      [
        "[UNK]",
        0.0
      ],
      [
        "[PAD]",
        0.0
      ],
      [
        "[SEP]",
        0.0
      ],
      [
        "[CLS]",
        0.0
      ],
      [
        "[MASK]",
        0.0
      ],
      [
        "<bn>",
        0.0
      ],
      [
        "¦",
        -1.8778356898467372
      ],
      [
        "à",
        -1.965936648724277
      ],
      [
        "¾",
        -2.6342308339185365
      ],
      [
        "à§ĩ",
        -2.8741170644375806
      ],
      [
        "à¦°",
        -3.0039648666586736
      ],
      [
        "à§į",
        -3.0445508324845996
      ],
      [
        "¿",
        -3.1838653095524734
      ],
      [
        "à¦¨",
        -3.634007530937737
      ],
      [
        "à¦¯",
        -3.801014403884409
      ],
      [
        "à¦¤",
        -3.9889872644614677
      ],
      [
        "à¦ķ",
        -4.057377935890422
      ],
      [
        "à¦²",
        -4.129828803538224
      ],
      [
        "à§ģ",
        -4.290363828564072
      ],
      [
        "à¦¬",
        -4.481028860179633
      ],
      [
        "à§ĭ",
        -4.607914329108059
      ],
      [
        "Ġà¦¬",
        -4.63086255985189
      ],
      [
        "à¦®",
        -4.67893832107578
      ],
      [
        "Ġà¦ª",
        -4.769972415592198
      ],
      [
        "Ġà¦¸",
        -4.837182222038225
      ],
      [
        "à¦Ł",
        -4.869045297749617
      ],
      [
        "à¦¸",
        -4.90991246745862
      ],
      [
        "à§Ģ",
        -4.973147242011388
      ],
      [
        "¼",
        -4.980225533090696
      ],
      [
        "Ġà¦ķ",
        -4.99421488004095
      ],
      [
        "Ġà¦¨",
        -5.045223305177293
      ],
      [
        "à¦¼à§ĩ",
        -5.050888639101599
      ],
      [
        "à¦¶",
        -5.109813963763418
      ],
      [
        "Ġà¦",
        -5.11137286100905
      ],
      [
        "Ġà¦®",
        -5.170629804500512
      ],
      [
        "à¦Ľ",
        -5.201350891341868
      ],
      [
        "§",
        -5.209647313072715
      ],
      [
        "à¦ª",
        -5.26601933966943
      ],
      [
        "à¥¤",
        -5.304075818466197
      ],
      [
        "à¦ľ",
        -5.318751934042334
      ],
      [
        "à¦Ĺ",
        -5.336304459871084
      ],
      [
        "à¦¼à¦¾",
        -5.393777295238271
      ],
      [
        "à¦·",
        -5.404714009640026
      ],
      [
        "Ġà¦¤",
        -5.421600008770133
      ],
      [
        "Ġà¦ķà¦°",
        -5.502565115982199
      ],
      [
        "à¦¡",
        -5.533185269519448
      ],
      [
        ",",
        -5.638787889051379
      ],
      [
        "Ĥ",
        -5.782690715172352
      ],
      [
        "Ġà¦ľ",
        -5.7835200431738265
      ],
      [
        "Ġà¦¶",
        -5.808991394842703
      ],
      [
        "à¦ļ",
        -5.829542622871408
      ],
      [
        "Ġà¦¹",
        -5.8497746078505894
      ],
      [
        "Ġà¦°",
        -5.890044758609424
      ],
      [
        "ĩ",
        -5.903931205586575
      ],
      [
        "à§ĩà¥¤",
        -5.9277112346491165
      ],
      [
        "Ġà¦¯",
        -5.998036361542878
      ],
      [
        "Ġà¦Ĺ",
        -6.027150543617985
      ],
      [
        "à¦¹",
        -6.044348986355677
      ],
      [
        "Ġà¦ļ",
        -6.053344349109009
      ],
      [
        "à¦ĸ",
        -6.07554073164866
      ],
      [
        "Ġà¦¹à¦¯",
        -6.097150243158842
      ],
      [
        "Ġà¦ĵ",
        -6.193506682238972
      ],
      [
        "¥",
        -6.23471093642217
      ],
      [
        "Ġà¦¥",
        -6.28008048624503
      ],
      [
        "Ġà¦Ń",
        -6.295011387849009
      ],
      [
        "à¦Ń",
        -6.307450281266362
      ],
      [
        "à¦¾à¦ģ",
        -6.315156234545212
      ],
      [
        "Ġà¦ªà¦°",
        -6.433126570439509
      ],
      [
        "à¦ĵà¦¯",
        -6.459692378842879
      ],
      [
        "Ġà¦¬à¦²",
        -6.53184572568415
      ],
      [
        "Ġà¦¸à¦®",
        -6.560665715853213
      ],
      [
        "Ġà¦²",
        -6.560871918195881
      ],
      [
        "à¦ĵ",
        -6.561842610727332
      ],
      [
        "Ġà¦Ľ",
        -6.566128963562539
      ],
      [
        "Ġà¦ı",
        -6.645275699310627
      ],
      [
        "Ġà¦ĸ",
        -6.654770849681201
      ],
      [
        "à¦£",
        -6.71967810527647
      ],
      [
        "à§ĥ",
        -6.732402907243959
      ],
      [
        "Ġà¦«",
        -6.741053570909651
      ],
      [
        "Ġà¦ħà¦¨",
        -6.7548745776343075
      ],
      [
        "Ġà¦Ł",
        -6.79060104357902
      ],
      [
        "à¦ł",
        -6.811862149639252
      ],
      [
        "à¦¾à¦Ĥ",
        -6.847308033532222
      ],
      [
        "à¦¼à¥¤",
        -6.864103441043319
      ],
      [
        "-",
        -6.933891998540435
      ],
      [
        "à¦¾à¥¤",
        -6.97454446574077
      ],
      [
        "ĠâĢĺ",
        -7.052696248470454
      ],
      [
        "à¦°à¦£",
        -7.063020409496714
      ],
      [
        "à¦¿à¥¤",
        -7.082940418848652
      ],
      [
        "Ġ(",
        -7.099507833403244
      ],
      [
        "à¦«",
        -7.107409585908211
      ],
      [
        "Ġà¦ľà¦¨",
        -7.138949741983144
      ],
      [
        "à¦¼à¦¿",
        -7.159995409366214
      ],
      [
        "à¦ŀ",
        -7.161330325561716
      ],
      [
        "Ġà¦ıà¦ķ",
        -7.184907219805391
      ],
      [
        "Ġà¦ıà¦ĩ",
        -7.220805458913421
      ],
      [
        "Ġà¦Ĩà¦®",
        -7.225284381992385
      ],
      [
        "Ġà¦ħ",
        -7.3514134648913885
      ],
      [
        "Ġà¦ıà¦ķà¦Ł",
        -7.353094972073055
      ],
      [
        "Ġà¦¹à¦¬",
        -7.41912119373081
      ],
      [
        "à§Į",
        -7.4281316784093985
      ],
      [
        "Ġà¦Ĩà¦²",
        -7.44388458225392
      ],
      [
        ".",
        -7.459648477445857
      ],
      [
        "à§Ī",
        -7.470647238743899
      ],
      [
        "Ġà¦¡",
        -7.476735290577706
      ],
      [
        "Ġà¦Ĩà¦°",
        -7.4914492473912215
      ],
      [
        "Ġà¦Ĩà¦Ĺ",
        -7.5087421265979195
      ],
      [
        "Ġà¦ħà¦Ń",
        -7.515430008623797
      ],
      [
        "à¦Ļ",
        -7.521624666835539
      ],
      [
        "Ġà¦¸à¦Ļ",
        -7.5326805713717135
      ],
      [
        "Ċ",
        -7.534300012968044
      ],
      [
        "à¦ľà¦¨",
        -7.551598325209344
      ],
      [
        "Ġ",
        -7.554546938607203
      ],
      [
        "Ġà¦ıà¦¬",
        -7.564798452254417
      ],
      [
        ")",
        -7.572975993931918
      ],
      [
        "à§ĩ,",
        -7.620148338929287
      ],
      [
        "Ġà¦®à¦§",
        -7.668815920995156
      ],
      [
        "à¦¿à¦Ĥ",
        -7.686946937799004
      ],
      [
        "Ġà¦īà¦¦",
        -7.732475228363976
      ],
      [
        "Ġà¦ķà¦®",
        -7.77115370303579
      ],
      [
        "à¦ļà¦¨",
        -7.8013128689781155
      ],
      [
        "Ġà¦¹à¦²",
        -7.813520828976044
      ],
      [
        "à¦ªà¦¤",
        -7.837746540345712
      ],
      [
        "à¦¾,",
        -7.850336915165853
      ],
      [
        "Ġà¦ĺ",
        -7.853135840327305
      ],
      [
        "à¦°à¦¥à¦®",
        -7.858903549245946
      ],
      [
        "Ġà¦ķà¦°à¦¤",
        -7.860174083422274
      ],
      [
        "Ġà¦ķà¦¥",
        -7.865165916339922
      ],
      [
        "Ġà¦¬à¦Ľà¦°",
        -7.879783728535788
      ],
      [
        "à¦¼,",
        -7.885002503511023
      ],
      [
        "Ġà¦Ĩà¦¬",
        -7.898285391656584
      ],
      [
        "à¦¶à¦¨",
        -7.917299321304091
      ],
      [
        "Ġà¦¦à¦²",
        -7.926833823717043
      ],
      [
        "Ġà¦Ĩà¦¸",
        -7.946782624508753
      ],
      [
        "Ġà¦¸à¦°à¦ķ",
        -7.948336960782845
      ],
      [
        "à¦¼à§ĭ",
        -7.9534799879224725
      ],
      [
        "à¦·à¦£",
        -7.958248413414637
      ],
      [
        "Ġà¦®à¦¨",
        -7.986025798088345
      ],
      [
        "Ġà¦Ĩ",
        -7.991000542936117
      ],
      [
        "Ġà¦ıà¦²",
        -8.002510586496186
      ],
      [
        "Ġà¦¢",
        -8.013236989653555
      ],
      [
        "Ġà¦īà¦ªà¦ľ",
        -8.02797780067981
      ],
      [
        "Ġà¦ĵà¦ĩ",
        -8.052951778705964
      ],
      [
        "Ġà¦§à¦°",
        -8.060693200560943
      ],
      [
        "Ġà¦Ĩà¦¨",
        -8.062279448555222
      ],
      [
        "Ġà¦Ĩà¦Ľ",
        -8.067006650186007
      ],
      [
        "Ġà¦ĺà¦Łà¦¨",
        -8.099744626433738
      ],
      [
        "Ġà¦ªà¦¡",
        -8.100719327288527
      ],
      [
        "à¦¯à¦¬à¦¸",
        -8.11053958972767
      ],
      [
        "Ġà¦Ĩà¦",
        -8.113156153619348
      ],
      [
        "Ġà¦¹à¦¤",
        -8.117287524374776
      ],
      [
        "Ġà¦¹à¦ļ",
        -8.13656995472136
      ],
      [
        "à¦¿,",
        -8.147328499643924
      ],
      [
        "Ġà¦ıà¦ĸà¦¨",
        -8.151494789576708
      ],
      [
        "Ġà¦Ĺà¦¤à¦ķ",
        -8.181174546411565
      ],
      [
        "Ġà¦Ĺà¦¤",
        -8.193171802870662
      ],
      [
        "âĢĻ",
        -8.233025637683886
      ],
      [
        "à¦®à¦²",
        -8.239631257995232
      ],
      [
        "Ġà¦¸à¦Ń",
        -8.247907581177872
      ],
      [
        "Ġà¦¸à¦¬",
        -8.251572326361742
      ],
      [
        "à¦·à¦¯",
        -8.255586800841042
      ],
      [
        "Ġà¦ħà¦§",
        -8.282093951718187
      ],
      [
        "Ġà¦Ĩà¦ľ",
        -8.296375640855423
      ],
      [
        "à¦®à¦ķà¦°",
        -8.304394457688792
      ],
      [
        "Ġà¦ļà¦²",
        -8.32638574144641
      ],
      [
        "à¦¾-",
        -8.337476586800712
      ],
      [
        "Ġà¦ĩà¦¸à¦²",
        -8.364198473788683
      ],
      [
        ":",
        -8.373042632228643
      ],
      [
        "Ġà¦¤à¦¬",
        -8.374212064036756
      ],
      [
        "Ġà¦ķà¦°à¦Ľ",
        -8.375266113727164
      ],
      [
        "à¦¼à§Ģ",
        -8.376638929240338
      ],
      [
        "Ġà¦ıà¦°",
        -8.377326628960766
      ],
      [
        "Ġà¦ħà¦°",
        -8.377791340642755
      ],
      [
        "à¦ĩà¦¨",
        -8.393768133059202
      ],
      [
        "à¦ĺ",
        -8.400350929045892
      ],
      [
        "à¦ªà¦ķ",
        -8.408715317649998
      ],
      [
        "à¦¦à¦ķ",
        -8.435799840920545
      ],
      [
        "à¦ĩà¦²",
        -8.439743700455383
      ],
      [
        "Ġà¦ħà¦¸",
        -8.450831708089531
      ],
      [
        "Ġà¦Ĩà¦°à¦ĵ",
        -8.454869656784561
      ],
      [
        "Ġà¦®à¦¹",
        -8.488879554733698
      ],
      [
        "Ġà¦°à¦¹à¦®",
        -8.496219044636236
      ],
      [
        "Ġà¦ħà¦¬à¦¸",
        -8.497856491497622
      ],
      [
        "Ġà¦ĩà¦īà¦¨",
        -8.551652687630511
      ],
      [
        "Ġà¦ıà¦Ł",
        -8.56492671322118
      ],
      [
        "Ġà¦Ĩà¦¯",
        -8.566771806596954
      ],
      [
        "Ġà¦ıà¦¸",
        -8.57957804316532
      ],
      [
        "Ġà¦¸à¦¦à¦¸",
        -8.581346943883327
      ],
      [
        "à¦ī",
        -8.592595240252859
      ],
      [
        "Ġà¦ĵà¦¯",
        -8.634075551015155
      ],
      [
        "Ġà¦Ĩà¦¶",
        -8.635711581953794
      ],
      [
        "à¦ı",
        -8.638976786489495
      ],
      [
        "à¦¬à¦¬",
        -8.639168340022444
      ],
      [
        "à¦ıà¦¨à¦ª",
        -8.639326900391458
      ],
      [
        "à§ĭ.",
        -8.640523339193741
      ],
      [
        "Ġà¦ħà¦¬",
        -8.651867011653378
      ],
      [
        "Ġà¦ĵà¦ªà¦°",
        -8.672012394855729
      ],
      [
        "Ġà¦ıà¦¤",
        -8.684302443546853
      ],
      [
        "à¦ĩà¦ķ",
        -8.690637062073518
      ],
      [
        "Ġà§§à§¦",
        -8.695513048484777
      ],
      [
        "à¦ªà¦¨",
        -8.70182548671447
      ],
      [
        "à¦Ŀ",
        -8.712013226868544
      ],
      [
        "Ġà¦Ľà¦¬",
        -8.734356656756812
      ],
      [
        "à¦·à¦ķ",
        -8.75167772847764
      ],
      [
        "Ġà¦īà¦¤",
        -8.753089449897255
      ],
      [
        "Ġà¦ıà¦®à¦¨",
        -8.754711668917777
      ],
      [
        "Ġà¦ĩà¦¨",
        -8.75638427765982
      ],
      [
        "à¥¤âĢĻ",
        -8.797844853026897
      ],
      [
        "Ġà¦¬à¦¡",
        -8.801032440014264
      ],
      [
        "Ġà¦¤à¦¥",
        -8.818256261275867
      ],
      [
        "à¦¸à¦¹",
        -8.818768789520284
      ],
      [
        "Ġà¦ł",
        -8.827474393144028
      ],
      [
        "à¦¸à¦ª",
        -8.830340837192056
      ],
      [
        "Ġà¦Ĩà¦®à¦°",
        -8.830882991948723
      ],
      [
        "à¦¿)",
        -8.836277564741662
      ],
      [
        "à¦§à¦¨",
        -8.838380964363505
      ],
      [
        "Ġà¦Ĩà¦¬à¦¦",
        -8.840063094803707
      ],
      [
        "Ġà¦ħà¦¤",
        -8.864965111231252
      ],
      [
        "Ġà¦ıà¦¸à¦¬",
        -8.883695046342698
      ],
      [
        "Ġà¦¸à¦¹",
        -8.899593379010545
      ],
      [
        "Ġà¦īà¦¨",
        -8.905228857957512
      ],
      [
        "Ġà¦īà¦ļ",
        -8.907829506888733
      ],
      [
        "à¦īà¦¨",
        -8.910958810197975
      ],
      [
        "Ġà¦Ĩà¦ķ",
        -8.919194508102477
      ],
      [
        "à¦ĩà¦Ł",
        -8.928680265661233
      ],
      [
        "à§ģà¦ģ",
        -8.935821854324463
      ],
      [
        "à¦¯à¦¬à¦¹",
        -8.941320087888977
      ],
      [
        "Ġà¦Ĩà¦ĩà¦¨",
        -8.966848342516734
      ],
      [
        "à¦ĩà¦¯",
        -8.984856953010256
      ],
      [
        "Ġà¦®à¦¤",
        -8.989719141335733
      ],
      [
        "Ġà¦ıà¦ķà¦ľà¦¨",
        -9.000383139524887
      ],
      [
        "Ġà¦ĺà¦Ł",
        -9.010629565856172
      ],
      [
        "Ġà¦Ŀ",
        -9.011788945664152
      ],
      [
        "?",
        -9.025320491771804
      ],
      [
        "à¦¨à¦®à¦¨",
        -9.028047079370362
      ],
      [
        "à§İ",
        -9.030986175393023
      ],
      [
        "à¦¹à¦¤",
        -9.036970101581913
      ],
      [
        "Ġà¦īà¦ªà¦¸",
        -9.09801140957287
      ],
      [
        "à¦Łà¦Ĺ",
        -9.101719690620548
      ],
      [
        "à¦°à¦ĵ",
        -9.113401669319579
      ],
      [
        "à¦ķà¦ľà¦¨",
        -9.115100263731861
      ],
      [
        "à§ĩà¥¤âĢĻ",
        -9.129073153589111
      ],
      [
        "à¦ļà¦²",
        -9.129808111078729
      ],
      [
        "Ġà¦«à¦²",
        -9.132961667122068
      ],
      [
        "à¦¿-",
        -9.139866540519552
      ],
      [
        "Ġà¦ķà¦°à¦¬",
        -9.14757313841825
      ],
      [
        "Ġà¦ĩà¦¤",
        -9.157917343621012
      ],
      [
        "Ġà¦§à¦°à¦¨",
        -9.161990310030353
      ],
      [
        "à¦§à¦¬",
        -9.177480367264556
      ],
      [
        "Ġà¦īà¦²",
        -9.1793867819282
      ],
      [
        "Ġà¦ıà¦ķà¦ĩ",
        -9.18191601200313
      ],
      [
        "Ġà¦ľà¦®",
        -9.193596367195871
      ],
      [
        "Ġà¦Ĩà¦ªà¦¨",
        -9.193965311802915
      ],
      [
        "Ġà¦¸à¦¡",
        -9.19594368193776
      ],
      [
        "Ġà¦ļà¦Ł",
        -9.199833730486095
      ],
      [
        "Ġà§¨",
        -9.208482845149836
      ],
      [
        "Ġà¦īà¦ª",
        -9.208871597300597
      ],
      [
        "Ġà¦ıà¦®",
        -9.230929950034254
      ],
      [
        "à§Ģà¥¤",
        -9.234582202043429
      ],
      [
        "à¦¹à¦¸",
        -9.235376547733063
      ],
      [
        "Ġà¦Ĩà¦¤",
        -9.239039303712797
      ],
      [
        "Ġà¦¤à¦ĸà¦¨",
        -9.240044789939699
      ],
      [
        "Ġà¦¶à¦¹à¦°",
        -9.25375565882514
      ],
      [
        "à¦Ĺà¦łà¦¨",
        -9.259257218365239
      ],
      [
        "à¦®à¦¸",
        -9.260954362793289
      ],
      [
        "à¦°à¦ĩ",
        -9.265364165640882
      ],
      [
        "Ġà¦¶à¦¤",
        -9.269261633125112
      ],
      [
        "à¦Ĺà¦¤",
        -9.277777132731977
      ],
      [
        "Ġà¦ĸà¦¬à¦°",
        -9.278031159825103
      ],
      [
        "Ġà¦īà¦ł",
        -9.290028455988308
      ],
      [
        "à¦ĩà¦°",
        -9.29906333886871
      ],
      [
        "à§Ģ,",
        -9.301297558535145
      ],
      [
        "Ġà¦¸à¦¦à¦°",
        -9.301532257914689
      ],
      [
        "à¦Ĩà¦®",
        -9.302739109732968
      ],
      [
        "Ġà¦Ĩà¦Łà¦ķ",
        -9.306416087146227
      ],
      [
        "Ġà§§à§§",
        -9.32195559047873
      ],
      [
        "Ġà¦ıà¦°à¦ªà¦°",
        -9.323394993495365
      ],
      [
        "Ġà¦Ĩà¦¹",
        -9.325955409317476
      ],
      [
        "Ġà¦ħà¦ªà¦°",
        -9.330910144008445
      ],
      [
        "Ġà¦ħà¦ª",
        -9.330925082607221
      ],
      [
        "à¦¥à¦¨",
        -9.337478053415788
      ],
      [
        "Ġà¦Ĩà¦¹à¦®",
        -9.339355954956712
      ],
      [
        "Ġà§§à§¨",
        -9.34094683828792
      ],
      [
        "Ġà¦¤à¦¦à¦¨",
        -9.35013616154778
      ],
      [
        "à¦ıà¦°",
        -9.351781254569785
      ],
      [
        "à¦¸à¦¬",
        -9.356055273664287
      ],
      [
        "à¦°à¦¹à¦£",
        -9.361814034134571
      ],
      [
        ")à¥¤",
        -9.383540436219185
      ],
      [
        "Ġà¦®à¦Ļ",
        -9.396527014635511
      ],
      [
        "à¦·à¦®à¦¤",
        -9.411895118598673
      ],
      [
        "Ġà¦ªà¦¥",
        -9.424976855523989
      ],
      [
        "à§İà¦¸",
        -9.426901075058641
      ],
      [
        "à¦Ĺà¦²à¦¬",
        -9.428438333270488
      ],
      [
        "Ġà¦Ĩà¦²à¦®",
        -9.431060396655301
      ],
      [
        "Ġà§¨à§¦",
        -9.432435069721093
      ],
      [
        "Ġà¦ıà¦Ĺ",
        -9.438833303620417
      ],
      [
        "Ġà¦ıà¦ĸ",
        -9.443196780249796
      ],
      [
        "Ġà§«",
        -9.455254927711328
      ],
      [
        "à¦¦à¦ª",
        -9.456504681739343
      ],
      [
        "Ġà¦īà¦ĩà¦ķ",
        -9.45829864284762
      ],
      [
        "à§ĭà¦ģ",
        -9.464991990215413
      ],
      [
        "Ġà¦ħà¦¬à¦¶",
        -9.46817012163994
      ],
      [
        "Ġà§©",
        -9.470403476185027
      ],
      [
        "âĢĶ",
        -9.495207888772551
      ],
      [
        "Ġà¦¸à¦®à¦¸",
        -9.495616819339707
      ],
      [
        "Ġà¦Ĩà¦¹à¦¤",
        -9.497074028451125
      ],
      [
        "Ġà¦Ĺà¦¡",
        -9.499956097422706
      ],
      [
        "à¦īà¦²",
        -9.504246973514753
      ],
      [
        "à¦ĩà¦¸",
        -9.540067283986534
      ],
      [
        "à¦¥à¦®",
        -9.540192463704532
      ],
      [
        "¯",
        -9.551243876822877
      ],
      [
        "Ġà¦¦à¦ķ",
        -9.566688811332137
      ],
      [
        "Ġà¦¸à¦¬à¦ļ",
        -9.569446241904501
      ],
      [
        "à§ĩà¦ģ",
        -9.570773620130716
      ],
      [
        "Ġà§§à§«",
        -9.571153325780477
      ],
      [
        "Ġthe",
        -9.587453624394056
      ],
      [
        "Ġà¦Ńà¦¬à¦¨",
        -9.591187532802074
      ],
      [
        "à§ĭà¥¤",
        -9.612620134518625
      ],
      [
        "à¦°à¦ķà¦²",
        -9.612660300103691
      ],
      [
        "à¦ĸà¦¤",
        -9.615790133810417
      ],
      [
        "à¦¼à§ģ",
        -9.6223751363527
      ],
      [
        "à¦¥à¦²",
        -9.634665349551579
      ],
      [
        "Ġà¦¨à¦Ĺà¦°",
        -9.639091752260644
      ],
      [
        "Ġà¦¬à¦²à¦Ľ",
        -9.639754408016149
      ],
      [
        "Ġà§ª",
        -9.642951895873697
      ],
      [
        "à¦¨à¦Ĺà¦°",
        -9.660010854668073
      ],
      [
        "à¦ĩà¦¬",
        -9.671289703300722
      ],
      [
        "!",
        -9.672005977236871
      ],
      [
        "ģ",
        -9.675637924918853
      ],
      [
        "à¦¿à¥¤âĢĻ",
        -9.679345802291882
      ],
      [
        "à¦īà¦Ł",
        -9.68207345045269
      ],
      [
        "Ġà¦ī",
        -9.68590384827756
      ],
      [
        "Ġà¦ĵà¦ł",
        -9.689291793420104
      ],
      [
        "Ġà¦Ľà¦¯",
        -9.690410568550888
      ],
      [
        "Ġà¦¸à¦¹à¦ķ",
        -9.697028144142273
      ],
      [
        "Ġà¦²à¦ķ",
        -9.700597926590214
      ],
      [
        "Ġà§¬",
        -9.721251557688479
      ],
      [
        "Ġà§©à§¦",
        -9.729576719565852
      ],
      [
        "à¦Ńà¦¬",
        -9.732240859141816
      ],
      [
        "Ġà¦¹à¦ķ",
        -9.743961737585304
      ],
      [
        "Ġà¦¯à¦ĸà¦¨",
        -9.746469456846329
      ],
      [
        "à¦łà¦ķ",
        -9.76160538671765
      ],
      [
        "Ġà¦Ĩà¦¸à¦¨",
        -9.761728812917202
      ],
      [
        "à¦¼à§ĩà¥¤",
        -9.765916143339535
      ],
      [
        "Ġà§®",
        -9.767598373032229
      ],
      [
        "à¦¸à¦Ļ",
        -9.789743426200467
      ],
      [
        "Ġà¦ĺà¦£",
        -9.804888750348445
      ],
      [
        "à§ĩ?",
        -9.80729472883163
      ],
      [
        "Ġà¦ľà¦¡",
        -9.824800104746238
      ],
      [
        "à¦ĺà¦°",
        -9.825437098454715
      ],
      [
        "à¦Łà¦¬à¦²",
        -9.831290055236959
      ],
      [
        "à¦īà¦¦",
        -9.831961471755495
      ],
      [
        "à§Įà¦ģ",
        -9.833857914397663
      ],
      [
        "Ġà¦ķà¦ĸà¦¨",
        -9.8397540886246
      ],
      [
        "à¦ļà¦Ł",
        -9.840960430760713
      ],
      [
        "à¦ĩà¦«",
        -9.84604554176433
      ],
      [
        "Ġà§Ń",
        -9.848440045892216
      ],
      [
        "à¦¥à¦ķ",
        -9.85240369383298
      ],
      [
        "à¦ĺà¦Łà¦¨",
        -9.856248390204875
      ],
      [
        "Ġà¦ĺà¦°",
        -9.857956434013357
      ],
      [
        "Ġà¦°à¦ķà¦®",
        -9.858147105641274
      ],
      [
        "),",
        -9.869621171625257
      ],
      [
        "Ġà¦°à¦ķ",
        -9.870054537344291
      ],
      [
        "Ġà¦¶à¦¹",
        -9.87787437894804
      ],
      [
        "à¦¼à¦¾,",
        -9.900939982892432
      ],
      [
        "à¦¾à¥¤âĢĻ",
        -9.902576296616989
      ],
      [
        "à§İà¦ķ",
        -9.904587603910294
      ],
      [
        "Ġà¦ľà¦Ļ",
        -9.905684041454366
      ],
      [
        "à¦īà¦ľ",
        -9.910066311333951
      ],
      [
        "à¦«à¦²",
        -9.913770189371235
      ],
      [
        "à§İà¦¸à¦ķ",
        -9.930307753025808
      ],
      [
        "Ġà¦Ĩà¦¸à¦Ľ",
        -9.934171792012771
      ],
      [
        "à¦¸à¦°à¦ķ",
        -9.944121394731164
      ],
      [
        "Ġà¦ħà¦ķ",
        -9.94611031886905
      ],
      [
        "à¦ıà¦ĩ",
        -9.947532914370516
      ],
      [
        "Ġà¦ħà¦«",
        -9.95143099585428
      ],
      [
        "Ġà¦¬à¦¹",
        -9.957584989314325
      ],
      [
        "à¦¢",
        -9.96484159671173
      ],
      [
        "Ġà¦Ĺà¦łà¦¨",
        -9.965070888255115
      ],
      [
        "Ġà¦ħà¦Ĺ",
        -9.968998626955674
      ],
      [
        "à¦Ĺà¦¤à¦ķ",
        -9.969777970744003
      ],
      [
        "Ġà¦Īà¦¦",
        -9.973618416587513
      ],
      [
        "Ġà§«à§¦",
        -9.975881545412054
      ],
      [
        "à¦ĩà¦®",
        -9.979713216853964
      ],
      [
        "Ġà¦¦à¦¶à¦®",
        -9.981602878079329
      ],
      [
        "Ġà§¨à§«",
        -9.986061764074838
      ],
      [
        "à¦¹à¦®",
        -9.990900648612797
      ],
      [
        "à¦ķà¦Ń",
        -9.995018855608034
      ],
      [
        "à¦ħà¦¨",
        -9.995664767297184
      ],
      [
        "Ġà¦Ĩà¦ª",
        -9.998446381845312
      ],
      [
        "à¦¯à¦ĩ",
        -10.016343827106084
      ],
      [
        "/",
        -10.021871189403315
      ],
      [
        ";",
        -10.033057717317806
      ],
      [
        "âĢĵ",
        -10.033470518159197
      ],
      [
        "à¦ĩà¦ľ",
        -10.038464225483269
      ],
      [
        "Ġà§§à§ª",
        -10.042861409138771
      ],
      [
        "·",
        -10.044350106598605
      ],
      [
        "Ġà¦īà§İà¦¸à¦¬",
        -10.045588803155864
      ],
      [
        "Ġà¦Ĩà¦ĩà¦¨à¦ľ",
        -10.060141247455892
      ],
      [
        "Ġà¦ľà¦¬",
        -10.062507846305806
      ],
      [
        "Ġà¦ĩà¦¸",
        -10.06397599553259
      ],
      [
        "à¦ĩà¦¡",
        -10.073380093213398
      ],
      [
        "Ġà¦īà¦ªà¦²à¦ķ",
        -10.076831573624933
      ],
      [
        "à¦Ĩà¦ľ",
        -10.081753864661376
      ],
      [
        "à¦īà¦¡",
        -10.084602877816096
      ],
      [
        "Ġà§§à§®",
        -10.088431331390886
      ],
      [
        "Ġà¦¸à¦ļ",
        -10.094635510793552
      ],
      [
        "Ġà¦¯à¦¥",
        -10.097781344778465
      ],
      [
        "Ġà¦ĵà¦Ń",
        -10.102042408758924
      ],
      [
        "Ġà¦ªà¦£",
        -10.110925811551617
      ],
      [
        "à¦¹à¦²",
        -10.116285357656785
      ],
      [
        "à¦®à¦§",
        -10.12221355933708
      ],
      [
        "Ġà¦īà§İà¦ª",
        -10.122735404228134
      ],
      [
        "Ġà§§à§©",
        -10.12320852123659
      ],
      [
        "Ġà§§à§¬",
        -10.123306371544569
      ],
      [
        "s",
        -10.124123947768192
      ],
      [
        "Ġà¦ľà¦¨à¦Ĺà¦£",
        -10.13750520348002
      ],
      [
        "Ġà¦ıà¦ª",
        -10.1394947415578
      ],
      [
        "Ġà¦¨à¦ľà¦°",
        -10.142425044077358
      ],
      [
        "Ġà¦ļà¦²à¦ļ",
        -10.156931075478763
      ],
      [
        "à¦¾âĢĻ",
        -10.15737454324153
      ],
      [
        "à¦¬à¦¹à¦¨",
        -10.158080347374922
      ],
      [
        "à§©à§¦",
        -10.165358770954848
      ],
      [
        "¨",
        -10.166671691746421
      ],
      [
        "Ġà¦¬à¦Ļ",
        -10.181410033256384
      ],
      [
        "Ġà¦¬à¦¦à¦²",
        -10.183877033151107
      ],
      [
        "Ġà¦Ĩà¦«",
        -10.190190867800693
      ],
      [
        "à¦Ĺà¦¬à¦¨",
        -10.197296529746882
      ],
      [
        "à¦°à¦¸à¦Ń",
        -10.19918870854485
      ],
      [
        "à¦īà¦°",
        -10.201828986534371
      ],
      [
        "Ġà¦Ĩà¦¡",
        -10.202248527084317
      ],
      [
        "Ġà¦ıà¦¨",
        -10.204194324231755
      ],
      [
        "Ġà¦¦à¦ĸà¦²",
        -10.216797096882592
      ],
      [
        "à¦Ĩà¦°",
        -10.218923686568148
      ],
      [
        "à¦¬à¦ĩ",
        -10.223463893928397
      ],
      [
        "à¦¨à¦ĩ",
        -10.240318616463327
      ],
      [
        "Ġà¦¸à¦«à¦°",
        -10.24209886080396
      ],
      [
        "Ġà¦ĩà¦īà¦°",
        -10.246496109539798
      ],
      [
        "Ġà¦¦à¦°à¦ķ",
        -10.249320117360464
      ],
      [
        "à¦ĵà¦¸",
        -10.249460930536637
      ],
      [
        "Ġà¦ĸà¦°à¦ļ",
        -10.25028295083813
      ],
      [
        "Ġà¦ħà¦²",
        -10.255321020217574
      ],
      [
        "à¦¿âĢĻ",
        -10.256976701551599
      ],
      [
        "à¦°à¦®à¦£",
        -10.25797540683695
      ],
      [
        "âĢĻà¥¤",
        -10.261681393280758
      ],
      [
        "Ġà¦ļà¦²à¦¤",
        -10.267040334077203
      ],
      [
        "à¦ªà¦£",
        -10.267305555409706
      ],
      [
        "Ġà¦¬à¦²à¦²",
        -10.270711341180673
      ],
      [
        "à¦ŀà¦ª",
        -10.27234386001181
      ],
      [
        "Ġà¦¸à¦¹à¦ľ",
        -10.279219839487377
      ],
      [
        "Ġà§ªà§¦",
        -10.284264048932709
      ],
      [
        "Ġà¦Ĺà¦£à¦¤",
        -10.284543235560694
      ],
      [
        "à¦īà¦¤",
        -10.299838120157652
      ],
      [
        "Ġof",
        -10.305013477800111
      ],
      [
        "Ġà¦ľà¦¨à¦ª",
        -10.306553546282714
      ],
      [
        "Ġà§¨à§ª",
        -10.307544866073227
      ],
      [
        "à¦°à¦ªà¦¤",
        -10.318305572868814
      ],
      [
        "Ġà§§à§Ń",
        -10.318481542625388
      ],
      [
        "Ġà¦ĭà¦£",
        -10.32360358440605
      ],
      [
        "Ġà¦ĩà¦¨à¦¸",
        -10.334021529933061
      ],
      [
        "Ġto",
        -10.336557983423788
      ],
      [
        "Ġà¦ķà¦®à¦ª",
        -10.339270625041424
      ],
      [
        "Ġà¦ĩà¦²",
        -10.339412458915785
      ],
      [
        "Ġà¦ıà¦Ń",
        -10.339809098847725
      ],
      [
        "Ġà¦ħà¦Ļ",
        -10.348128570714115
      ],
      [
        "à¦ľà¦¨à¦ķ",
        -10.348906985835281
      ],
      [
        "Ġà¦īà¦¡",
        -10.350150539730558
      ],
      [
        "Ġà¦ķà¦°à¦ª",
        -10.356597073389798
      ],
      [
        "Ġà¦¬à¦ĩ",
        -10.362430512008368
      ],
      [
        "Ġa",
        -10.374583119162818
      ],
      [
        "Ġà§¨à§¨",
        -10.378088422218106
      ],
      [
        "à¦ıà¦²",
        -10.3786688523444
      ],
      [
        "Ġà¦¡à¦²",
        -10.389336656935495
      ],
      [
        "à¦¸à¦Ń",
        -10.395395400726391
      ],
      [
        "Ġà¦Ĩà¦¸à¦²",
        -10.396166247963686
      ],
      [
        "à§«",
        -10.396940204102561
      ],
      [
        "Ġà¦Ĺà¦¬",
        -10.399470670872311
      ],
      [
        "Ġà¦Ĩà¦Ł",
        -10.40110089904151
      ],
      [
        "Ġà¦ªà¦¦à¦ķ",
        -10.403263640493684
      ],
      [
        "Ġà¦²à¦¡",
        -10.415743404668138
      ],
      [
        "Ġà§¨à§§",
        -10.415917958848793
      ],
      [
        "Ġà¦Ĩà¦Łà¦Ł",
        -10.418795597427879
      ],
      [
        "à¦¸à¦ļ",
        -10.422056493188329
      ],
      [
        "à¦°à¦¦à¦°",
        -10.423760793883064
      ],
      [
        "Ġà¦īà¦ªà¦ªà¦°",
        -10.426416759614614
      ],
      [
        "à¦¼à¦¾à¥¤",
        -10.442664761866252
      ],
      [
        "Ġà§§à§¯",
        -10.444303814871382
      ],
      [
        "Ġà¦Ĩà¦¹à¦®à¦¦",
        -10.448798667206466
      ],
      [
        "Ġà¦¨à¦Ń",
        -10.456737459913956
      ],
      [
        "Ġà¦ĩà¦®",
        -10.457225866748871
      ],
      [
        "à§©",
        -10.463958163889815
      ],
      [
        "Ġà¦ħà¦¥à¦ļ",
        -10.466800847905011
      ],
      [
        "Ġà¦Ĺà¦£à¦®",
        -10.473739667324416
      ],
      [
        "Ġà¦¦à¦«",
        -10.481677091689305
      ],
      [
        "Ġà§§à§¦à§¦",
        -10.488448990232907
      ],
      [
        "à¦ıà¦¸",
        -10.494604064392757
      ],
      [
        "à¦ħ",
        -10.505280701404537
      ],
      [
        "Ġin",
        -10.505510263579264
      ],
      [
        "Ġà¦¬à¦²à¦¤",
        -10.526059189815449
      ],
      [
        "Ġà¦Ĩà¦¸à¦¬",
        -10.527294619545414
      ],
      [
        "Ġà¦ħà¦ľ",
        -10.529509899417892
      ],
      [
        "Ġà¦Ĩà¦¸à¦¤",
        -10.530099536634657
      ],
      [
        "à¦¯à¦¤à¦®",
        -10.538077923598015
      ],
      [
        "à¦Ĩà¦®à¦°",
        -10.543186973937024
      ],
      [
        "à¦¥à¦¬",
        -10.54366948427393
      ],
      [
        "à¦¯à¦¥",
        -10.554290156300947
      ],
      [
        "Ġà§¨à§©",
        -10.555040606743548
      ],
      [
        "Ġà¦ĩà¦īà¦ª",
        -10.55864770480933
      ],
      [
        "à¦Łà¦¸à¦®",
        -10.559049040267162
      ],
      [
        "à¦¨à¦¬à¦¨",
        -10.5638665370335
      ],
      [
        "Ġand",
        -10.564713697681933
      ],
      [
        "Ġà¦¦à¦²à¦Ł",
        -10.56764340934387
      ],
      [
        "à§¨à§¦",
        -10.56816235238269
      ],
      [
        "Ġà¦Ĩà¦ĺ",
        -10.578137139202392
      ],
      [
        "Ġà¦Ĺà¦£",
        -10.580538523365389
      ],
      [
        "à¦¼à§Ģ,",
        -10.582240572087722
      ],
      [
        "Ġà¦¸à¦°à¦¬à¦°",
        -10.584037424287004
      ],
      [
        "à¦Łà¦°à¦¸",
        -10.58478022246683
      ],
      [
        "Ġà§¨à§Ń",
        -10.593276062511437
      ],
      [
        "à¦īà¦ķ",
        -10.59706511152407
      ],
      [
        "Ġà§¨à§®",
        -10.59800690131778
      ],
      [
        "à¦ıà¦",
        -10.60021711537848
      ],
      [
        "à§Ģ-",
        -10.604836978694255
      ],
      [
        "Ġà§¨à§¬",
        -10.60663379745187
      ],
      [
        "à¦¤à¦¦à¦¨",
        -10.614824807828699
      ],
      [
        "à¦ıà¦ķ",
        -10.614965733129486
      ],
      [
        "Ġà¦Ĳà¦ķ",
        -10.620342197142612
      ],
      [
        "ĠâĢĶ",
        -10.624277134249699
      ],
      [
        "à¦īà¦ĩ",
        -10.628900141720912
      ],
      [
        "Ġà¦ıà¦¶",
        -10.63524646555427
      ],
      [
        "âĢį",
        -10.637493880636628
      ],
      [
        "Ġà¦īà§İà¦¸",
        -10.64110424649518
      ],
      [
        "Ġà§¨à§¦à§§à§ª",
        -10.641812733115286
      ],
      [
        "Ġà¦ĩà¦°",
        -10.645543825449462
      ],
      [
        "Ġà¦īà¦ªà¦ķ",
        -10.649092719169078
      ],
      [
        "Ġà¦ħà¦Ł",
        -10.65285315226889
      ],
      [
        "Ġà¦ĩà¦ļ",
        -10.653995208163577
      ],
      [
        "à¦ĩà¦Ń",
        -10.655912719060014
      ],
      [
        "à¦¾)",
        -10.662524787817267
      ],
      [
        "Ġà¦¸à¦¹à¦¸à¦Ń",
        -10.66254854291529
      ],
      [
        "à§ģà¦ĥ",
        -10.667611698036911
      ],
      [
        "à¦²à¦Ļ",
        -10.671630191231612
      ],
      [
        "Ġà¦Ĩà¦¨à¦¨",
        -10.671819358916636
      ],
      [
        "à¦ĩà¦ª",
        -10.672630810583689
      ],
      [
        "à¦¼-",
        -10.68106536688671
      ],
      [
        "à¦Ĩà¦ĩ",
        -10.68219669662712
      ],
      [
        "Ġis",
        -10.685975522508645
      ],
      [
        "Ġà¦ªà¦°à¦ĵ",
        -10.687040118350975
      ],
      [
        "ª",
        -10.68790234085359
      ],
      [
        "d",
        -10.702803809641713
      ],
      [
        "Ġà¦¶à¦«",
        -10.708604644489116
      ],
      [
        "Ġà§¨à§¦à§§à§«",
        -10.709561324572206
      ],
      [
        "à¦īà¦¸",
        -10.713483768616102
      ],
      [
        "à¦·à¦ķà¦¦",
        -10.716236127279913
      ],
      [
        "Ġà¦ıà¦ķà¦ªà¦°",
        -10.722340756373404
      ],
      [
        "Ġà¦ķà¦²à¦ķ",
        -10.72412362540083
      ],
      [
        "à¦¼à¥¤âĢĻ",
        -10.729041093628863
      ],
      [
        "Ġà¦°à¦«",
        -10.730716678265598
      ],
      [
        "à¦°à¦¸à¦¨",
        -10.731636227512896
      ],
      [
        "âķĽ",
        -10.732999653632852
      ],
      [
        "à¦ıà¦®",
        -10.737843457456778
      ],
      [
        "à¦¾:",
        -10.738553057107218
      ],
      [
        "Ġà¦§à¦¨",
        -10.740955424001827
      ],
      [
        "à§ĩâĢĶ",
        -10.748019941517304
      ],
      [
        "à¦¸à¦®à¦°",
        -10.752182413739183
      ],
      [
        "Ġà¦Ĩà¦ĩà¦¸",
        -10.752773790722225
      ],
      [
        "Ġà§¬à§¦",
        -10.754216742413323
      ],
      [
        "Ġà§¨à§¦à§§à§©",
        -10.755205904112744
      ],
      [
        "Ġà¦ıà¦ľ",
        -10.762240239010636
      ],
      [
        "¬",
        -10.770053311050027
      ],
      [
        "Ġà¦ħà¦¬à¦°",
        -10.771750435504451
      ],
      [
        "à¦ĩà¦¤",
        -10.772456801498226
      ],
      [
        "ÑĢÐ¶",
        -10.77387804994857
      ],
      [
        "Ġà¦īà¦ªà¦",
        -10.786511582613727
      ],
      [
        "à¦®à¦¨à¦¸",
        -10.786635236215742
      ],
      [
        "à§įâĢĮ",
        -10.7968976401787
      ],
      [
        "Ġà¦ıà¦¡",
        -10.797853218476256
      ],
      [
        "à¦¥à¦Ĺ",
        -10.798107028496734
      ],
      [
        "à¦¨à¦¸à¦¹",
        -10.807204064092376
      ],
      [
        "Ġà¦¦à¦ª",
        -10.813174715954641
      ],
      [
        "à¦°à¦§à¦°",
        -10.8133249296403
      ],
      [
        "Ġà§¨à§¯",
        -10.81621627839699
      ],
      [
        "(",
        -10.817131004695558
      ],
      [
        "Ġà¦ªà¦ŀ",
        -10.818524110418926
      ],
      [
        "à¦ĩà¦Ľ",
        -10.82347023602644
      ],
      [
        "à¦Ļà¦ļ",
        -10.827999669428166
      ],
      [
        "Ġà§©à§§",
        -10.828352510601695
      ],
      [
        "a",
        -10.829763152852708
      ],
      [
        "à¦ĺà¦",
        -10.830063919065898
      ],
      [
        "Ġà¦®à¦¸à¦ľ",
        -10.831796262340672
      ],
      [
        "Ġà¦Ĩà¦ĩà¦¨à¦¶",
        -10.835331724058596
      ],
      [
        "Ġà¦¦à¦®à¦¨",
        -10.83754755204856
      ],
      [
        "®",
        -10.83768188433638
      ],
      [
        "Ġà§¨à§¦à§¦",
        -10.843597915609063
      ],
      [
        "Ġà¦ĩà¦ķà¦¬",
        -10.846451377182882
      ],
      [
        "à§¨à§¨",
        -10.853573048885975
      ],
      [
        "Ġà¦¹à¦ł",
        -10.855195182325179
      ],
      [
        "à¦Ĩà¦²",
        -10.855627828580893
      ],
      [
        "Ġà¦ıà¦ıà¦«",
        -10.86606615751191
      ],
      [
        "Ġà¦ĩà¦ľ",
        -10.868215262549041
      ],
      [
        "Ġà¦¦à¦¶à¦ķ",
        -10.87011794716638
      ],
      [
        "à¦¥à¦¬à¦Ľà¦°",
        -10.87114172819021
      ],
      [
        "âĢĮà§į",
        -10.87118027881556
      ],
      [
        "à¦¯à¦®à¦¨",
        -10.882061830219453
      ],
      [
        "Ġà¦Ĳà¦¤",
        -10.887507646660023
      ],
      [
        "Ġà¦ľà¦¨à¦¸",
        -10.889389849738965
      ],
      [
        "Ġà¦Ĺà¦Ń",
        -10.89153719536854
      ],
      [
        "à¦¼?",
        -10.892122529422155
      ],
      [
        "Ġà¦Ĩà¦°à¦¬",
        -10.894236405534826
      ],
      [
        "Ġà§¨à§¦à§§à§¬",
        -10.900444124396625
      ],
      [
        "à¦ıà¦®à¦¨",
        -10.911839656323902
      ],
      [
        "Ġà§«à§¦à§¦",
        -10.913482574824407
      ],
      [
        "Ġà§©à§«",
        -10.915904620801381
      ],
      [
        "Ġà¦ħà¦®",
        -10.916022097693025
      ],
      [
        "à¦¬à¦¤à¦¨",
        -10.920728566774299
      ],
      [
        "à¦¥à¦¤",
        -10.925124666845027
      ],
      [
        "à¦īà¦¬",
        -10.925356366678411
      ],
      [
        "Ń",
        -10.926820639716293
      ],
      [
        "à§¨à§«",
        -10.9270440088301
      ],
      [
        "âĸĳ",
        -10.928193128857314
      ],
      [
        "Ġà¦ħà¦ªà¦¹à¦°à¦£",
        -10.931420093222496
      ],
      [
        "Ġà¦¹à¦°à¦¤",
        -10.933572069237831
      ],
      [
        "Ġà¦¸à¦«à¦²",
        -10.93737220555399
      ],
      [
        "à¦¾?",
        -10.940069060568334
      ],
      [
        "à¦Īà¦¦",
        -10.940893252164095
      ],
      [
        "Ġà¦Ĭ",
        -10.941353287429985
      ],
      [
        "à¦ħà¦Ń",
        -10.94214960074222
      ],
      [
        "Ġà¦°à¦Ļ",
        -10.944755326598287
      ],
      [
        "e",
        -10.94505925317571
      ],
      [
        "Ġà¦ķà¦¤à¦Ł",
        -10.948033923474181
      ],
      [
        "Ġà¦Ĩà¦²à¦®à¦Ĺ",
        -10.9485571684647
      ],
      [
        "Ġà¦ıà¦°à¦ĩ",
        -10.950313251854261
      ],
      [
        "à¦Ĺà¦ªà¦¤",
        -10.953221226637957
      ],
      [
        "Ġii",
        -10.954109811859583
      ],
      [
        "à¦ıà¦¸à¦ĩ",
        -10.955489687190605
      ],
      [
        "à¦¯à¦¬à¦",
        -10.960560848880776
      ],
      [
        "Ġà¦ļà¦²à¦¬",
        -10.961891031492192
      ],
      [
        "à¦¥à¦°",
        -10.964180295562063
      ],
      [
        "à¦ļà¦ľà¦¨",
        -10.965389521554421
      ],
      [
        "à¦īà¦ªà¦ľ",
        -10.970001921075028
      ],
      [
        "âĢĻ-",
        -10.973206211979166
      ],
      [
        "à§§à§«",
        -10.973797883574326
      ],
      [
        "à§ĩ!",
        -10.97395647120599
      ],
      [
        "à§¨à§§",
        -10.979240776750979
      ],
      [
        "à¦Łà¦«",
        -10.981047118575779
      ],
      [
        "Ġà¦īà¦ľ",
        -10.981883277571395
      ],
      [
        "à¦Ŀà¦¤",
        -10.982185009322983
      ],
      [
        "Ġà¦Ĩà¦ļà¦°à¦£",
        -10.982506743415083
      ],
      [
        "Ġà§¨à§¦à§§à§¨",
        -10.995570636605079
      ],
      [
        "Ġà§Ńà§¦",
        -10.998511406726108
      ],
      [
        "à§§à§§",
        -11.004144389038949
      ],
      [
        "à§©à§«",
        -11.00585759979741
      ],
      [
        "à§¨à§©",
        -11.00661683576498
      ],
      [
        "à¦ıà¦¸à¦¸",
        -11.014651726691492
      ],
      [
        "à¦ıà¦¸à¦Ĩà¦ĩ",
        -11.017471687097581
      ],
      [
        "Ġà¦«à¦ľà¦²",
        -11.023552093536868
      ],
      [
        "à¦¨à¦ľà¦Ł",
        -11.026453566259079
      ],
      [
        "à¦·à¦¦à¦°",
        -11.030925056773276
      ],
      [
        "Ġà§®à§¦",
        -11.032187185155825
      ],
      [
        "à¦ıà¦Ł",
        -11.032287816728584
      ],
      [
        "Ġà¦ĩà¦®à¦°",
        -11.036749053388114
      ],
      [
        "à¦¿?",
        -11.041741301186109
      ],
      [
        "à¦ªà¦¥",
        -11.042657191886436
      ],
      [
        "à¦¹à¦ľ",
        -11.045229130218926
      ],
      [
        "Ġà¦«à¦ĸà¦°",
        -11.064870387584715
      ],
      [
        "à¦¼à¦Ĥ",
        -11.067475442812258
      ],
      [
        "Ġà¦ĩà¦¬",
        -11.073605223366425
      ],
      [
        "c",
        -11.075119348493368
      ],
      [
        "à¦ĵà¦ĩ",
        -11.079427124343608
      ],
      [
        "Ġà¦¬à¦¸à¦¬",
        -11.079977763147168
      ],
      [
        "Ġà¦Ĩà¦īà¦Ł",
        -11.084525399970795
      ],
      [
        "Ġiii",
        -11.088850470180077
      ],
      [
        "à¦¾âĢĶ",
        -11.090474323978162
      ],
      [
        "b",
        -11.095388763877857
      ],
      [
        "Ġà¦ĩà¦Ł",
        -11.100654279326445
      ],
      [
        "i",
        -11.104207318275495
      ],
      [
        "à¦ĸà¦Ľ",
        -11.110545233715637
      ],
      [
        "Ġi",
        -11.111034504299706
      ],
      [
        "Ġà¦ķà¦¨à¦¸",
        -11.11129553903037
      ],
      [
        "à¦°à¦¸à¦¹",
        -11.120765561305673
      ],
      [
        "âĢĻ,",
        -11.12777334148573
      ],
      [
        "à¦¬à¦Ļ",
        -11.12824588741551
      ],
      [
        "à¦¥à¦®à¦¨",
        -11.130776333105477
      ],
      [
        "à¦¨à¦ªà¦¤",
        -11.13113892416219
      ],
      [
        "Ġà§¨à§¦à§§à§§",
        -11.135786948194326
      ],
      [
        "Ġà§©à§¨",
        -11.138363565054131
      ],
      [
        "à¦¼à¦¾-",
        -11.138422887902692
      ],
      [
        "à§Ģ?",
        -11.138752210454715
      ],
      [
        "à¦ĩà¦īà¦ª",
        -11.139702456413447
      ],
      [
        "à¦ĩà¦īà¦ıà¦¨à¦ĵ",
        -11.13991596305864
      ],
      [
        "à¦Ĩà¦Ĺ",
        -11.141613592056054
      ],
      [
        "Ġà¦Ĺà¦°à¦®",
        -11.142749832422401
      ],
      [
        "Ġà¦Ĩà¦¨à¦¤",
        -11.1437447399395
      ],
      [
        "à¦Ĩà¦ĩà¦¡",
        -11.154044180176449
      ],
      [
        "Ġà¦īà¦łà¦¤",
        -11.15776956334012
      ],
      [
        "Ġà¦Ĩà¦ľà¦ķ",
        -11.158663198918923
      ],
      [
        "Ġà¦Ĩà¦«à¦Ĺ",
        -11.162949824053364
      ],
      [
        "à¦¿:",
        -11.164107867473277
      ],
      [
        "Ġà¦ıà¦ķà¦¸à¦®",
        -11.164838286137469
      ],
      [
        "à¦Ĩà¦¨",
        -11.16840438572146
      ],
      [
        "Ġà¦Ĺà¦ł",
        -11.17010974749104
      ],
      [
        "Ġà¦¨à¦ķà¦¶",
        -11.17502923323881
      ],
      [
        "à§ªà§«",
        -11.176132627116855
      ],
      [
        "à§ªà§¦",
        -11.176516898251831
      ],
      [
        "à¦¾!",
        -11.18121575328188
      ],
      [
        "ĥ",
        -11.185870264530905
      ],
      [
        "à¦ĺà¦¨",
        -11.18986714536166
      ],
      [
        "Ġà¦®à¦£",
        -11.189891616404097
      ],
      [
        "Ġà¦¸à¦¤à¦°",
        -11.190721987163231
      ],
      [
        "Ġà§ªà§«",
        -11.197993218982928
      ],
      [
        "à¦¹à¦«",
        -11.201819061072433
      ],
      [
        "Ġà¦®à¦®à¦¤",
        -11.202637050866837
      ],
      [
        "à§§à§¨",
        -11.204508486642377
      ],
      [
        "à¦Ĩà¦¬",
        -11.209203635744679
      ],
      [
        "Ġà¦ªà¦°à¦ĩ",
        -11.210986090869847
      ],
      [
        "Ġà¦Ĩà¦ĸ",
        -11.212681129318735
      ],
      [
        "Ġà§©à§¦à§¦",
        -11.213475660969157
      ],
      [
        "Ġà¦īà¦ªà¦¹",
        -11.2143445332995
      ],
      [
        "Ġà¦ıà¦ķà¦®",
        -11.216420271735325
      ],
      [
        "Ġà§¯à§¦",
        -11.221215477361824
      ],
      [
        "à¦ıà¦¬",
        -11.228601109698081
      ],
      [
        "Ġà§¨à§¦à§§à§¦",
        -11.229862140873005
      ],
      [
        "Ġà¦ªà¦¦à¦¤",
        -11.23702455450651
      ],
      [
        "Ġà¦¦à¦°à¦ľ",
        -11.237252636447577
      ],
      [
        "Ġà¦ļà¦°à¦®",
        -11.238504881025248
      ],
      [
        "Ġà¦²à¦Ļ",
        -11.242687297979103
      ],
      [
        "Ġà¦¸à¦¬à¦ķ",
        -11.243230864608478
      ],
      [
        "Ġà¦°à¦¹",
        -11.247607498108795
      ],
      [
        "à¦Ĩà¦",
        -11.24868040292128
      ],
      [
        "Ġà¦Ĩà¦ĩà¦ıà¦¸",
        -11.255688639402047
      ],
      [
        "Ġà¦ıà¦ĩà¦ļ",
        -11.260318222731776
      ],
      [
        "à¦¶à¦«",
        -11.260760897406138
      ],
      [
        "ĠThe",
        -11.263993066822811
      ],
      [
        "à¦ħà¦§",
        -11.264932466124483
      ],
      [
        "à§§à§®",
        -11.269420623232659
      ],
      [
        "Ġà¦¦à¦²à¦Ĺ",
        -11.277170963143933
      ],
      [
        "Ġà¦ħà¦¬à¦",
        -11.277210379807618
      ],
      [
        "à¦¼à§į",
        -11.280811261992548
      ],
      [
        "Ġà¦«à¦¸à¦²",
        -11.280875443492762
      ],
      [
        "à¦ħà¦°",
        -11.281777903793555
      ],
      [
        "à§«à§¦",
        -11.282968498356404
      ],
      [
        "Ġà¦¦à¦²à¦ķ",
        -11.284027243799374
      ],
      [
        "à¦°à¦¬à¦£",
        -11.293335344918345
      ],
      [
        "à¦¾âĢĵ",
        -11.293389435521405
      ],
      [
        "à§¨à§ª",
        -11.295350950821453
      ],
      [
        "Ġà¦¸à¦®à¦Ŀ",
        -11.2973329770238
      ],
      [
        "Ġà¦«à¦°à¦®",
        -11.300657889275787
      ],
      [
        "à¦¬à¦ľà¦¨",
        -11.306869975249926
      ],
      [
        "à¦«à¦Ł",
        -11.309684122397366
      ],
      [
        "Ġà¦ħà¦¶",
        -11.314434766001412
      ],
      [
        "âĶĲ",
        -11.319882393197823
      ],
      [
        "à¦¥à¦ķà¦",
        -11.31989053080632
      ],
      [
        "Ġà¦ĵà¦¸à¦®",
        -11.320641848139331
      ],
      [
        "à§§à§¯",
        -11.322728591611533
      ],
      [
        "à¦ĩà¦ĵ",
        -11.324114621523508
      ],
      [
        "Ġà¦Ĩà¦¦à¦°",
        -11.328212152035718
      ],
      [
        "à¦¦à¦°à¦¬à¦¨",
        -11.337540571714843
      ],
      [
        "Ġà¦Ĩà¦Ļ",
        -11.337862254300726
      ],
      [
        "à¦ıà¦ķà¦Ł",
        -11.339107940293006
      ],
      [
        "à¦§à¦Ń",
        -11.340325661460485
      ],
      [
        "à§§à§¬",
        -11.340909935848885
      ],
      [
        "à¦¿à¦ģ",
        -11.34150902273871
      ],
      [
        "Ġà¦¤à§İà¦ªà¦°à¦¤",
        -11.34195401582719
      ],
      [
        "à¦ľà¦¨à¦ĩ",
        -11.344998013426801
      ],
      [
        "Ġà¦ĵà¦ľà¦¨",
        -11.346881756964414
      ],
      [
        "Ġà¦ĵà¦·",
        -11.347510233946238
      ],
      [
        "à¦°à¦«à¦°à¦®",
        -11.348584266623948
      ],
      [
        "Ġà¦¸à¦¨à¦¦",
        -11.353115211556041
      ],
      [
        "à¦¬à¦Ľà¦°",
        -11.353508787707689
      ],
      [
        "à¦¿à¦ĥ",
        -11.354947472149734
      ],
      [
        "Ġà¦Ĩà¦¶à¦°",
        -11.35813136149132
      ],
      [
        "à¦°à¦¦à¦²",
        -11.358993483980305
      ],
      [
        "à¦¿)à¥¤",
        -11.35926246024535
      ],
      [
        "Ġà¦ĩà¦īà¦ıà¦¨à¦ĵ",
        -11.36855459790543
      ],
      [
        "Ġà§¨à§¦à§§à§Ń",
        -11.369946936575674
      ],
      [
        "Ġà¦Ĩà¦¬à¦¹",
        -11.373417877618508
      ],
      [
        "à§Ĥà¦ģ",
        -11.379095878370276
      ],
      [
        "à¦¿.",
        -11.383555512682404
      ],
      [
        "Ġà¦ĩà¦īà¦¸",
        -11.385127569505368
      ],
      [
        "à¦¶à¦ĩ",
        -11.385997877418193
      ],
      [
        "Ġà¦ıà¦ķà¦¬",
        -11.387899701085724
      ],
      [
        "Ġà§¨à§¦à§¦à§¯",
        -11.390672332930357
      ],
      [
        "Ġà¦²à¦¬à¦£",
        -11.398311489264414
      ],
      [
        "ĠâĢľ",
        -11.402261720809177
      ],
      [
        "à§§à§ª",
        -11.404080553490317
      ],
      [
        "à¦ıà¦¸à¦¬",
        -11.405234043603679
      ],
      [
        "à¦ĩà¦Ĺ",
        -11.413974924337067
      ],
      [
        "Ġà§¨à§¦à§¦à§®",
        -11.426960396040851
      ],
      [
        "Ġà¦§à¦¸",
        -11.427332571386144
      ],
      [
        "à¦ĩà¦®à¦¸",
        -11.43084987973865
      ],
      [
        "Ġà¦¤à¦¹à¦¬",
        -11.430981751492386
      ],
      [
        "Ġà¦ħà¦¬à¦¹",
        -11.440711592794875
      ],
      [
        "à¦®à¦£à¦¬",
        -11.441725877717092
      ],
      [
        "à¦°à¦Ĺà¦¤",
        -11.445921094664612
      ],
      [
        "Ġà§©à§©",
        -11.44795806868416
      ],
      [
        "à¦ıà¦¨à¦ľ",
        -11.454457577895642
      ],
      [
        "à¦Ĺà¦£",
        -11.459932723718934
      ],
      [
        "Ġà¦ıà¦«",
        -11.461216856950442
      ],
      [
        "g",
        -11.463990696134765
      ],
      [
        "à¦£à¦«",
        -11.466704728032234
      ],
      [
        "ing",
        -11.470226424723258
      ],
      [
        "Ġà¦Ĩà¦ĩà¦ª",
        -11.470929621736735
      ],
      [
        "Ġà¦ķà¦£",
        -11.472735413971852
      ],
      [
        "Ġà§©à§ª",
        -11.474875761504759
      ],
      [
        "Ġà¦Ĩà¦ķà¦°",
        -11.479328177781236
      ],
      [
        "Ġà§©à§¬",
        -11.483967918978491
      ],
      [
        "Ġà¦®à§İà¦¸",
        -11.485296718858594
      ],
      [
        "Ġà¦®à¦¹à¦²",
        -11.486113212625721
      ],
      [
        "à¦īà¦®",
        -11.496402555526728
      ],
      [
        "Ġà¦ħà¦¬à¦ķ",
        -11.50386575322432
      ],
      [
        "à¦Ĩà¦ªà¦¨",
        -11.504484163571842
      ],
      [
        "à¦®à¦°à¦£",
        -11.511494790672018
      ],
      [
        "à¦¥à¦Ń",
        -11.511604914708998
      ],
      [
        "Ġà§ªà§¨",
        -11.512490041189423
      ],
      [
        "à§ĢâĢĻ",
        -11.514014485683303
      ],
      [
        "à§ĭ:",
        -11.515491690964993
      ],
      [
        "Ġà¦ıà¦ķà¦¦à¦²",
        -11.521200495601597
      ],
      [
        "Ġà¦¸à¦¬à¦ľ",
        -11.521342862839663
      ],
      [
        "Ġà¦«à¦Łà¦ķ",
        -11.522334136005083
      ],
      [
        "Ġare",
        -11.522386812996348
      ],
      [
        "Ġà¦ħà¦¸à¦®",
        -11.526107542413556
      ],
      [
        "à¦¾.",
        -11.52635949179554
      ],
      [
        "à¦ħà¦¸",
        -11.529344398394635
      ],
      [
        "Ġà¦¬à¦¸à¦¤",
        -11.534240790045535
      ],
      [
        "à¦°à¦°à¦«",
        -11.53648739370765
      ],
      [
        "à§¨à§®",
        -11.541436869335868
      ],
      [
        "Ġà¦°à¦®à¦ľ",
        -11.542498966711092
      ],
      [
        "à¦ķà¦¶à¦¨",
        -11.543547024165273
      ],
      [
        "Ġà¦¶à¦°à¦£",
        -11.54425953914865
      ],
      [
        "à¦°à¦¥à¦®à¦¬",
        -11.5482863760327
      ],
      [
        "Ġà¦ªà¦°à¦ªà¦°à¦ĩ",
        -11.548511117791422
      ],
      [
        "à¦Ĩà¦°à¦ĵ",
        -11.549400803479772
      ],
      [
        "à¦Ĺà¦ĩ",
        -11.55042007716397
      ],
      [
        "à¦ıà¦«",
        -11.550440822996283
      ],
      [
        "à¦ķà¦¸à¦¹",
        -11.553467471226757
      ],
      [
        "à¦ıà¦ĸà¦¨",
        -11.556645659089307
      ],
      [
        "Ġwas",
        -11.556879091067927
      ],
      [
        "Ġà¦Ĺà¦£à¦ª",
        -11.558178288770087
      ],
      [
        "Ġà¦ĩà¦ķ",
        -11.55942203019674
      ],
      [
        "à¦Ĩà¦ĩà¦¸",
        -11.563407060861246
      ],
      [
        "Ġà¦ħà¦ªà¦¸",
        -11.564857055172324
      ],
      [
        "à¦ıà¦¸à¦ª",
        -11.568280095868124
      ],
      [
        "à¦¬à¦¦à¦²",
        -11.568730464518016
      ],
      [
        "à¦Ĩà¦¸",
        -11.56931050337012
      ],
      [
        "à¦¶à¦ķà¦¦",
        -11.569952072084309
      ],
      [
        "Ġà¦īà¦łà¦²",
        -11.572111664319307
      ],
      [
        "à§§à§Ń",
        -11.578106831125174
      ],
      [
        "à¦¹à¦¬à¦§",
        -11.57889431599339
      ],
      [
        "Ġà¦Ĩà¦ªà¦¤",
        -11.579104109163564
      ],
      [
        "Ġà¦ĩà¦Ń",
        -11.585785698524589
      ],
      [
        "Ġà§ªà§®",
        -11.587765742731074
      ],
      [
        "à¦¼à¦¾à¦Ĥ",
        -11.592979916570238
      ],
      [
        "y",
        -11.594221569732044
      ],
      [
        "Ġà§ªà§¦à§¦",
        -11.59563633309355
      ],
      [
        "à§§à§©",
        -11.596099974553626
      ],
      [
        "à¦¿!",
        -11.596248733809043
      ],
      [
        "à¦®à¦¹à¦¤",
        -11.600266866100368
      ],
      [
        "Ġà§©à§Ń",
        -11.604645683534661
      ],
      [
        "à¦²à¦¸à¦¹",
        -11.605969156390003
      ],
      [
        "Ġà§©à§®",
        -11.606366723236837
      ],
      [
        "Ġà¦¨à¦¥",
        -11.608700397325778
      ],
      [
        "ed",
        -11.609524010855901
      ],
      [
        "à¦¨à¦ľà¦¨à¦ķ",
        -11.613855683684799
      ],
      [
        "à¦¼âĢĻ",
        -11.616855133991036
      ],
      [
        "Ġà¦¤à¦ĸà¦¨à¦ĩ",
        -11.617113866162082
      ],
      [
        "Ġà¦Ĩà¦ĸà¦¤",
        -11.617225469954244
      ],
      [
        "ĠI",
        -11.622416778389683
      ],
      [
        "com",
        -11.624011451184812
      ],
      [
        "Ġà¦ķà¦ķà¦Ł",
        -11.629934299073124
      ],
      [
        "à¦ķà¦¥",
        -11.630633566470316
      ],
      [
        "Ġà¦¸à¦«à¦Łà¦ĵ",
        -11.63410586587973
      ],
      [
        "à¦°à¦ªà¦°à¦ĵ",
        -11.634566789420536
      ],
      [
        "Ġà¦¦à¦°à¦ªà¦¤",
        -11.636151910604214
      ],
      [
        "à¦Ĩà¦ĵ",
        -11.637851992049631
      ],
      [
        "à¦īà¦ª",
        -11.64215762148949
      ],
      [
        "Ġfor",
        -11.646180143305335
      ],
      [
        "ĠÑĢÐ¶",
        -11.647256220739925
      ],
      [
        "Ġà¦®à¦¤à¦¬",
        -11.653030207275432
      ],
      [
        "à¦®à¦ĺà¦Ł",
        -11.6530712630352
      ],
      [
        "f",
        -11.659428983311935
      ],
      [
        "à¦¶à¦ķà¦¤",
        -11.662747360466112
      ],
      [
        "à¦¥à¦ª",
        -11.667104867915288
      ],
      [
        "à¦Ĩ",
        -11.667529100291919
      ],
      [
        "...",
        -11.673863824189995
      ],
      [
        "Ġ=",
        -11.675918219604023
      ],
      [
        "Ġà¦ıà¦¸à¦Ĩà¦ĩ",
        -11.676456297240781
      ],
      [
        "à¦ħà¦¬",
        -11.681189605481435
      ],
      [
        "à¦¿âĢĶ",
        -11.682427640539393
      ],
      [
        "Ġà§«à§«",
        -11.687766715206694
      ],
      [
        "Ġà§Ńà§«",
        -11.693999177648553
      ],
      [
        "Ġà¦ıà¦¸à¦ıà¦¸",
        -11.694119016579513
      ],
      [
        "à¦ıà¦®à¦ª",
        -11.704356561065957
      ],
      [
        "Ġà¦ĵà¦®à¦°",
        -11.704407082731883
      ],
      [
        "?âĢĻ",
        -11.704744443860381
      ],
      [
        "à¦ĩà¦¨à¦¸",
        -11.70519693221819
      ],
      [
        ".(",
        -11.706606009987283
      ],
      [
        "*",
        -11.707195444729562
      ],
      [
        "Ġà¦īà¦ĩà¦¨",
        -11.70818817008598
      ],
      [
        "Ġà¦ľà¦¹",
        -11.711024980000182
      ],
      [
        "à¦Ĩà¦ĩà¦¯",
        -11.7126807645967
      ],
      [
        "Ġà¦¶à¦ªà¦¥",
        -11.714705688325326
      ],
      [
        "Ġà¦Īà¦¶",
        -11.717367525417
      ],
      [
        "Ġà¦ıà¦ĸà¦¨à¦ĩ",
        -11.723528060806094
      ],
      [
        "Ġà¦Ĩà¦ķà¦¬à¦°",
        -11.72392577537829
      ],
      [
        "à¦Ńà¦¬à¦¤",
        -11.726486797916083
      ],
      [
        "à¦Ĺà¦ľà¦ª",
        -11.731583128677544
      ],
      [
        "Ġà¦¶à¦¤à¦ķ",
        -11.735212240627295
      ],
      [
        "à¦ĩà¦¨à¦¬",
        -11.743034395574242
      ],
      [
        "Ġà¦Ĩà¦Łà¦ľà¦¨",
        -11.747631721678168
      ],
      [
        "Ġà¦īà¦ĩà¦²",
        -11.748969684281423
      ],
      [
        "Ġà§©à§¯",
        -11.749352636782541
      ],
      [
        "à¦īà¦ļ",
        -11.749991659562173
      ],
      [
        "Ġà§ªà§©",
        -11.752018960861545
      ],
      [
        "Ġwith",
        -11.757904882798147
      ],
      [
        "Ġà¦ħà¦¸à¦¹",
        -11.759763093352166
      ],
      [
        "à¦°à¦¹à¦£à¦¯",
        -11.773809414645783
      ],
      [
        "Ġà§ªà§§",
        -11.77429224252179
      ],
      [
        "Ġà¦īà¦ªà¦Ń",
        -11.776475139597014
      ],
      [
        "Ġà¦ķà¦²à¦®",
        -11.776741962782488
      ],
      [
        "Ġà¦®à¦°à¦¦",
        -11.78234245190339
      ],
      [
        "Ġà§§à§«à§¦",
        -11.78549776055859
      ],
      [
        "Ġà§ªà§ª",
        -11.786516139094655
      ],
      [
        "à¦ķà¦Ĩà¦ª",
        -11.787711164993468
      ],
      [
        "à§©à§¨",
        -11.791240222304424
      ],
      [
        "Ġà§¨à§¦à§§à§®",
        -11.792353454058699
      ],
      [
        "Ġà¦¯à¦¤à¦Ł",
        -11.794357617993196
      ],
      [
        "Ġà§¬à§«",
        -11.795851199098028
      ],
      [
        "à¦ķà¦ľà¦¨à¦ķ",
        -11.79904531552889
      ],
      [
        "à¦īà¦¶à¦¨",
        -11.799238568816339
      ],
      [
        "à¥¤âĢĺ",
        -11.80404227256306
      ],
      [
        "Ġà¦Ĩà¦ĩà¦¯",
        -11.805678381537678
      ],
      [
        "ĠHe",
        -11.80645218968373
      ],
      [
        "Ġà§¨à§¦à§¦à§Ń",
        -11.816340197425141
      ],
      [
        "Ġà¦ĩà¦¶",
        -11.81674684474724
      ],
      [
        "à¦¼à¦¿,",
        -11.817627220766118
      ],
      [
        "à¦Ĩà¦°à¦Ł",
        -11.818399120249877
      ],
      [
        "à¦Ńà¦Ļ",
        -11.818919672570281
      ],
      [
        "à¦¼!",
        -11.824047661372914
      ],
      [
        "Ġà¦īà¦ªà¦®",
        -11.827317716167386
      ],
      [
        "à¦¦à¦¨à¦ķ",
        -11.8275771375005
      ],
      [
        "Ġà¦ļà¦®à¦ķ",
        -11.830126219795618
      ],
      [
        "à¦ľà¦īà¦¦",
        -11.830254867983864
      ],
      [
        "Ġyou",
        -11.83152195935531
      ],
      [
        "Ġà¦ıà¦¤à¦Ł",
        -11.832495670441064
      ],
      [
        "Ġà¦Ĩà¦¨à¦¸",
        -11.835813947483114
      ],
      [
        "Ġà¦¨à¦Ĺà¦¦",
        -11.83586431737717
      ],
      [
        "Ġà¦Ĺà¦Ńà¦°",
        -11.83607591313632
      ],
      [
        "à¦Łà¦ķà¦Ł",
        -11.839948876787648
      ],
      [
        "à¦¸à¦«à¦Ł",
        -11.840249023528795
      ],
      [
        "Ġit",
        -11.841026813238239
      ],
      [
        "Ġà¦ıà¦®à¦ª",
        -11.842944056480349
      ],
      [
        "à¦¹à¦°à¦£",
        -11.84460094341868
      ],
      [
        "Ġà¦°à¦ĵà¦¨",
        -11.846042038065152
      ],
      [
        "à¦²à¦ĺ",
        -11.84708117662693
      ],
      [
        "à§¨à§¬",
        -11.849005554676573
      ],
      [
        "à¦ıà¦ķà¦ĩ",
        -11.85717112212713
      ],
      [
        "Ġhis",
        -11.858937771304372
      ],
      [
        "Ġhe",
        -11.861043802223826
      ],
      [
        "à¦£à¦Ń",
        -11.864419362568437
      ],
      [
        "à¦¼âĢĶ",
        -11.864563407415286
      ],
      [
        "à¦¸à¦²à¦®",
        -11.865062013733866
      ],
      [
        "à¦¯à§İ",
        -11.865233502319231
      ],
      [
        "à¦ıà¦¸à¦ıà¦«",
        -11.879370843473401
      ],
      [
        "Ġà§«à§¨",
        -11.88121666029682
      ],
      [
        "@",
        -11.882130597965038
      ],
      [
        "à¦¾)à¥¤",
        -11.88396077009404
      ],
      [
        "à¦¸à¦Ńà¦¬à¦¨",
        -11.885899106213495
      ],
      [
        "à¦ĩà¦¦à¦¹",
        -11.88765461124269
      ],
      [
        "Ġà¦¶à¦ĵà¦ķà¦¤",
        -11.88842745185928
      ],
      [
        "Ġà¦ľà¦²à¦¬",
        -11.889171049665025
      ],
      [
        "h",
        -11.890381028292214
      ],
      [
        "Ġà§«à§Ń",
        -11.893366759881632
      ],
      [
        "Ġà§ªà§¬",
        -11.893969548300836
      ],
      [
        "Ġà§ªà§Ń",
        -11.896817909131169
      ],
      [
        "à¦¬à¦¦à¦¨",
        -11.897307046258437
      ],
      [
        "Ġà¦ªà¦¦à¦ª",
        -11.898596318539104
      ],
      [
        "à¦¾;",
        -11.901936135748008
      ],
      [
        "Ġà¦Ĩà¦ĩà¦¡",
        -11.902717309728864
      ],
      [
        "Ġà§¨à§«à§¦",
        -11.904921365299149
      ],
      [
        "à¦ľà¦¨à¦¶",
        -11.905438933815205
      ],
      [
        "à¦ķà¦¸à¦Ń",
        -11.907146965295874
      ],
      [
        "Ġà¦Ĩà¦ĩà¦«",
        -11.907508287842067
      ],
      [
        "Ġà§¨à§¦à§¦à§¬",
        -11.909392947513659
      ],
      [
        "Ġà¦¨à¦¬à¦®",
        -11.910252302340579
      ],
      [
        "à¦ĩà¦¶",
        -11.91233495141872
      ],
      [
        "Ġà¦Ĺà¦£à¦¸",
        -11.914767930347185
      ],
      [
        "Ġà§¬à§¦à§¦",
        -11.915399935946596
      ],
      [
        "Ġà¦ªà¦¥à¦ļ",
        -11.916027171773647
      ],
      [
        "Ġà¦īà¦ªà¦ķà¦°à¦£",
        -11.919302389126537
      ],
      [
        "2",
        -11.924830000294955
      ],
      [
        "Ġà¦Ĩà¦ĩà¦¨à¦Ĺà¦¤",
        -11.92526304205242
      ],
      [
        "âķķ",
        -11.926045171131058
      ],
      [
        "Ġà¦Ĺà¦£à¦¹",
        -11.929507982589818
      ],
      [
        "à¦ªà¦ķà¦²",
        -11.93061171307355
      ],
      [
        "à§¨à§Ń",
        -11.930654736509377
      ],
      [
        "à¦ĩà¦ķà¦®",
        -11.934415834611341
      ],
      [
        "Ġthat",
        -11.934590816841652
      ],
      [
        "Ġà§ªà§¯",
        -11.93543117841208
      ],
      [
        "Ġà¦īà¦łà¦¬",
        -11.93613707419155
      ],
      [
        "Ġà¦ľà¦ĸà¦®",
        -11.940316961823676
      ],
      [
        "Ġà§«à§ª",
        -11.941112126587822
      ],
      [
        "à¦ħà¦¬à¦¶",
        -11.945376603225615
      ],
      [
        "Ġà¦ªà¦°à¦ªà¦°",
        -11.947674780102748
      ],
      [
        "à¦¼à§Ģà¥¤",
        -11.949313895590219
      ],
      [
        "Ġà¦¹à¦ľà¦°à¦¤",
        -11.950478058955023
      ],
      [
        "Ġà¦ĩà¦¸à¦®",
        -11.952278257473498
      ],
      [
        "Ġà¦Ńà¦Ļ",
        -11.954317563069013
      ],
      [
        "Ġà¦īà¦ªà¦¨",
        -11.956195327772523
      ],
      [
        "à¦²à¦®à¦¨",
        -11.958226831946797
      ],
      [
        "à¦¾.)",
        -11.96097766387939
      ],
      [
        "à¦ıà¦®à¦¬",
        -11.964918347775496
      ],
      [
        "à§«à§«",
        -11.965182577660002
      ],
      [
        "à¦Īà¦®",
        -11.968209633194995
      ],
      [
        "âĢĭ",
        -11.970146409911692
      ],
      [
        "à¦¼:",
        -11.97032686384832
      ],
      [
        "Ġà§¬à§ª",
        -11.972454553426985
      ],
      [
        "à¦¿à¦Ĥ,",
        -11.973693811851104
      ],
      [
        "Ġnot",
        -11.975602571763718
      ],
      [
        "Ġà¦ıà¦ķà¦§à¦°à¦¨",
        -11.98331875203421
      ],
      [
        "Ġà¦¬à¦¹à¦¨",
        -11.984806360944978
      ],
      [
        "Ġà§«à§§",
        -11.987888993139267
      ],
      [
        "Ġà§§à§¯à§Ńà§§",
        -11.989289496216175
      ],
      [
        "Ġà¦ĩà¦ĩà¦ī",
        -11.989535634452462
      ],
      [
        "Ġà¦ĩà¦Łà¦Ń",
        -11.992965666583393
      ],
      [
        "Ġà¦¨à¦ľà¦°à¦",
        -11.993113628804352
      ],
      [
        "ww",
        -11.998690220728465
      ],
      [
        "à¦Ĩà¦¯",
        -11.999730335657226
      ],
      [
        "à¦ıà¦¨à¦¸",
        -12.001267524652002
      ],
      [
        "Ġà§«à§¬",
        -12.004069718474208
      ],
      [
        "à¦²à¦¥",
        -12.007305654723567
      ],
      [
        "Ġà§Ńà§¨",
        -12.009239665479518
      ],
      [
        "Ġà¦¹à¦¨à¦¨",
        -12.009480035478449
      ],
      [
        "Ġà§®à§¦à§¦",
        -12.00991205541149
      ],
      [
        "Ġà¦Ĩà¦ľà¦ĵ",
        -12.011707015433432
      ],
      [
        "iii",
        -12.015330954930077
      ],
      [
        "à¦īà¦¥",
        -12.021230537553919
      ],
      [
        "Ġà¦ĸà¦¨à¦¨",
        -12.026337395051241
      ],
      [
        "Ġà¦ħà¦¬à¦¨à¦¤",
        -12.033255281046674
      ],
      [
        "à¦ľà¦īà¦ķ",
        -12.033876375999204
      ],
      [
        "à¦Ĩà¦°à¦¸",
        -12.034416038300693
      ],
      [
        "à¦§à¦ķà¦¤",
        -12.044674178203651
      ],
      [
        "à§ĩ;",
        -12.044756923430594
      ],
      [
        "Answer",
        -12.047460746906884
      ],
      [
        "Ġà¦ħà¦·",
        -12.050882953449497
      ],
      [
        "Ġà¦ıà¦ķà¦ľà¦¨à¦ķ",
        -12.05155628798167
      ],
      [
        "à¦¼à¦¿à¥¤",
        -12.052707231859165
      ],
      [
        "Ġà¦¸à¦¬à¦ĩ",
        -12.053526162731355
      ],
      [
        "à¦ħà¦ª",
        -12.053529550048106
      ],
      [
        "à¦ªà¦Łà¦ª",
        -12.055615205163235
      ],
      [
        "à¦Ĩà¦ĩà¦¨",
        -12.057437156059427
      ],
      [
        "à¦¦à¦°à¦¬",
        -12.062006445172896
      ],
      [
        "à¦ıà¦¨",
        -12.069264794341443
      ],
      [
        "Ġà¦ĩà¦",
        -12.081145742352707
      ],
      [
        "Ġà¦Ĩà¦ľà¦¹",
        -12.082706179962903
      ],
      [
        "Ġà¦ĩà¦īà¦Ł",
        -12.089155190864995
      ],
      [
        "Ġà¦ķà¦¬à¦°à¦¸",
        -12.089774538705539
      ],
      [
        "Ġà§¨à§¦à§¦à§§",
        -12.08987801523367
      ],
      [
        "à¦Ĩà¦ĩà¦ª",
        -12.093109381427002
      ],
      [
        "Ġà¦Ĩà¦ľà¦®",
        -12.094265616544034
      ],
      [
        "à§¬à§¦",
        -12.095187547869532
      ],
      [
        ".)",
        -12.095265001954678
      ],
      [
        "Ġfrom",
        -12.101106861424029
      ],
      [
        "Ġà¦īà¦Ĺ",
        -12.103194423750864
      ],
      [
        "à¦¼à§",
        -12.103451578081849
      ],
      [
        "ĠA",
        -12.105950123270894
      ],
      [
        "Ġon",
        -12.108088520285202
      ],
      [
        "à¦¨à¦¬à¦¤",
        -12.1114619547298
      ],
      [
        "à¦°à¦¥",
        -12.112681737375127
      ],
      [
        "à¦¤à¦ķà¦°à¦£",
        -12.114954714136463
      ],
      [
        "à¦Ĺà¦¤à¦Ń",
        -12.115509956450373
      ],
      [
        "Ġà§Ńà§§",
        -12.117897984620297
      ],
      [
        "à¦Ĩà¦ĩà¦¬",
        -12.117928654227825
      ],
      [
        "Ġà¦ıà¦®à¦¨à¦ĩ",
        -12.118452440909524
      ],
      [
        "à¦Ĩà¦¶",
        -12.118998231802136
      ],
      [
        "Ġà§«à§©",
        -12.1190375339504
      ],
      [
        "à¦®à¦¸à¦¹",
        -12.12090319960509
      ],
      [
        "à¦¾âĢĻà¥¤",
        -12.126039238758853
      ],
      [
        "à¦ĩà¦ī",
        -12.127835453254173
      ],
      [
        "Ġà§¨à§¦à§¦à§«",
        -12.128070267597957
      ],
      [
        "à¦ĩà¦¹",
        -12.131912168143554
      ],
      [
        "t",
        -12.134287651359303
      ],
      [
        "à¦ķà¦¸à¦ĩ",
        -12.135006171735922
      ],
      [
        "Ġ+",
        -12.13513546685908
      ],
      [
        "Ġà¦ħà¦¬à¦²",
        -12.1371431432301
      ],
      [
        "à¦¬à¦ľà¦¨à¦",
        -12.139721499803832
      ],
      [
        "à¦ĩà¦Ļ",
        -12.140369839052074
      ],
      [
        "à¦¨à¦¸à¦®",
        -12.14172734156551
      ],
      [
        "à¦Ĩà¦ĩà¦ľ",
        -12.142205604039303
      ],
      [
        "à¦¹à¦ķà¦¦",
        -12.142920273099898
      ],
      [
        "Ġà¦®à¦Īà¦¨",
        -12.144236707643955
      ],
      [
        "âĸĵ",
        -12.150351261049456
      ],
      [
        "Ġà§¨à§¦à§¦à§ª",
        -12.150874320926734
      ],
      [
        "à¦ıà¦°à¦ªà¦°",
        -12.152006276267722
      ],
      [
        "à¦¼;",
        -12.152070683676133
      ],
      [
        "Ġà§¨à§¦à§§à§¯",
        -12.15209801636244
      ],
      [
        "Ġà§Ńà§¦à§¦",
        -12.152160117421683
      ],
      [
        "Ġà¦ĩà¦īà¦ķ",
        -12.156385773074572
      ],
      [
        "Ġà§¬à§¨",
        -12.163003401298038
      ],
      [
        "Ġà¦Ĩà¦ļ",
        -12.164698472022716
      ],
      [
        "Ġà¦Ĩà¦ļà¦°à¦£à¦¬",
        -12.164842101215658
      ],
      [
        "Ġà¦®à¦¨à¦ľ",
        -12.167533460152303
      ],
      [
        "%",
        -12.170673052682583
      ],
      [
        "Ġà¦Łà¦¹à¦²",
        -12.172152223650578
      ],
      [
        "Ġà¦īà¦¸à¦ķ",
        -12.179280474574325
      ],
      [
        "Ġà¦Ńà¦°à¦¸",
        -12.180480962518837
      ],
      [
        "Ġà§«à§®",
        -12.181693336888067
      ],
      [
        "à¦¿à¦Ĥà¥¤",
        -12.182237220887504
      ],
      [
        "Ġà¦ĩà¦ī",
        -12.183044905541589
      ],
      [
        "à¦ļà¦£",
        -12.18388179803352
      ],
      [
        "à§¦à§¦à§¦",
        -12.185745863729087
      ],
      [
        "ĠIt",
        -12.188763973996705
      ],
      [
        "Ġà¦°à¦ĵà¦¶à¦¨",
        -12.190187059090713
      ],
      [
        "j",
        -12.191853107059647
      ],
      [
        "à¦ĸà¦¬à¦°",
        -12.192374385766295
      ],
      [
        "Ġà§®à§«",
        -12.194062467204255
      ],
      [
        "n",
        -12.194876031663036
      ],
      [
        "à¦ıà¦¸à¦ľ",
        -12.201735983536802
      ],
      [
        "!âĢĻ",
        -12.203653578569725
      ],
      [
        "Ġà¦ħà¦ļ",
        -12.206332158174682
      ],
      [
        "Ġat",
        -12.207908778144905
      ],
      [
        "à¦Ĩà¦¤",
        -12.21230979782874
      ],
      [
        "Ġà¦Ĩà¦«à¦¸",
        -12.217877987174278
      ],
      [
        "Ġw",
        -12.219868176781333
      ],
      [
        "âĢĿ",
        -12.220111681102644
      ],
      [
        "à§İà¦¸à¦ķà¦¦",
        -12.220940013240103
      ],
      [
        "Ġà§§à§¨à§¦",
        -12.22131683916921
      ],
      [
        "à¦ıà¦ķà¦ľà¦¨",
        -12.231228448912862
      ],
      [
        "Ġà¦ıà¦¨à¦¡",
        -12.23656348304215
      ],
      [
        "à¦ħà¦¤",
        -12.236648948086273
      ],
      [
        "à§¦à§«",
        -12.237679218136996
      ],
      [
        "ly",
        -12.243733960203459
      ],
      [
        "Ġà¦¨à¦¬à¦ľ",
        -12.243944856834593
      ],
      [
        "à¦ĩà¦ļ",
        -12.246990087835217
      ],
      [
        "Ġby",
        -12.247538173475096
      ],
      [
        "à¦¥à¦¸",
        -12.247586291340868
      ],
      [
        "Ġà¦Ĩà¦«à¦°",
        -12.248133882670489
      ],
      [
        "à¦ĩà¦²à¦Ł",
        -12.251894411156764
      ],
      [
        "à¦ħà¦¬à¦°",
        -12.252432774631936
      ],
      [
        "Ġà¦¦à¦²à¦ĩ",
        -12.253191982565811
      ],
      [
        "Ġà§«à§¯",
        -12.255280311569724
      ],
      [
        "à§©à§®",
        -12.25568892644511
      ],
      [
        "Ġà¦ıà¦ķà¦®à¦¤",
        -12.258336549130116
      ],
      [
        "à§ĭâĢĻ",
        -12.263544264107027
      ],
      [
        "Ġà¦ıà¦ĩà¦ļà¦ıà¦¸",
        -12.268203030127443
      ],
      [
        "#",
        -12.268507479068068
      ],
      [
        "Ġà§¬à§Ń",
        -12.271773759030152
      ],
      [
        "ii",
        -12.27360848752206
      ],
      [
        "ĠâĢ¢",
        -12.28068135488347
      ],
      [
        "Ġà§¬à§©",
        -12.281315159917192
      ],
      [
        "Ġhave",
        -12.281792568141459
      ],
      [
        "Ġas",
        -12.282641408302757
      ],
      [
        "Ġà§¬à§§",
        -12.286089892083023
      ],
      [
        "âĢĻâĢĶ",
        -12.286396521276025
      ],
      [
        "Ġà¦Ĩà¦ī",
        -12.286933340464712
      ],
      [
        "à¦°à¦¹à¦£à¦ķ",
        -12.287124161175866
      ],
      [
        "Ġan",
        -12.288581105624864
      ],
      [
        "Ġà¦ľà¦Ĺà¦¤",
        -12.289362239414714
      ],
      [
        "à¦²à¦ªà¦¥",
        -12.290397991901505
      ],
      [
        "Ġà¦¬à¦¦à¦°",
        -12.292091421041707
      ],
      [
        "Ġà¦ķà¦¨à¦«",
        -12.29354015086916
      ],
      [
        "à§ĭ?",
        -12.296451453879563
      ],
      [
        "à¦Ĺà¦łà¦¨à¦Ĺ",
        -12.296656386641311
      ],
      [
        "Ġà¦ĺà¦°à¦¬",
        -12.298980731622924
      ],
      [
        "l",
        -12.299253761560108
      ],
      [
        "à¥¤*",
        -12.299757864247999
      ],
      [
        "Ġà¦ıà¦¨à¦ľ",
        -12.302058763291257
      ],
      [
        "Ġà¦īà¦ĩà¦®",
        -12.302256986432122
      ],
      [
        "à¦Ĩà¦¬à¦¦",
        -12.30251417763849
      ],
      [
        "Ġà§¬à§¬",
        -12.303675606659786
      ],
      [
        "Ġour",
        -12.305884132932153
      ],
      [
        "Ġà¦ĺà¦Łà¦²",
        -12.307188338913729
      ],
      [
        "à¦Ĩà¦ķ",
        -12.311682994290273
      ],
      [
        "Ġbe",
        -12.312899432141851
      ],
      [
        "à¦°à¦¨à¦Ĺà¦°",
        -12.313773330544247
      ],
      [
        "Ġà§¬à§®",
        -12.316457619593058
      ],
      [
        "Ġà¦ıà¦°à¦ªà¦°à¦ĵ",
        -12.319733936380356
      ],
      [
        "Ġà§¯à§«",
        -12.322431379621031
      ],
      [
        "à¦¸à¦¦à¦°",
        -12.331078662825048
      ],
      [
        "à¦¦à¦¸à¦¹",
        -12.333445722244242
      ],
      [
        "à¦ħà¦ķ",
        -12.333502420535083
      ],
      [
        "Ġà§¨à§¦à§¦à§©",
        -12.334272438082015
      ],
      [
        "à§ĭà¦Ĥ",
        -12.34208801793918
      ],
      [
        "):",
        -12.346555176798418
      ],
      [
        "Ġà¦ľà¦Ĺà¦¨",
        -12.346778088281615
      ],
      [
        "Ġà§¨à§¦à§¦à§¦",
        -12.351275917722978
      ],
      [
        "Ġà¦ħà¦ļà¦²",
        -12.351460565483277
      ],
      [
        "à¦¨à¦¸à¦Ń",
        -12.353034721357776
      ],
      [
        "Ġà¦Ĺà¦£à¦¶",
        -12.357439527188697
      ],
      [
        "Ġà¦Ĩà¦Ń",
        -12.358273099787775
      ],
      [
        "à¦¶à¦¹à¦°",
        -12.361736993544094
      ],
      [
        "ĠĠĠĠ",
        -12.363018709392874
      ],
      [
        "Ġ*",
        -12.36312566184074
      ],
      [
        "Ġà¦°à¦īà¦«",
        -12.367711429322105
      ],
      [
        "à§¨à§¦à§§à§ª",
        -12.373544736644137
      ],
      [
        "à¦ĩà¦Łà¦¸",
        -12.375464340010081
      ],
      [
        "Ġà¦ħà¦²à¦Ĩà¦īà¦Ł",
        -12.375648822506092
      ],
      [
        "à¦ķà¦®à¦¤",
        -12.377007719352324
      ],
      [
        "à¦ıà¦¨à¦ı",
        -12.378862748073594
      ],
      [
        "à§Ģ:",
        -12.379511352079161
      ],
      [
        "+",
        -12.380026519613155
      ],
      [
        "à¦ıà¦®à¦¡",
        -12.380243432659297
      ],
      [
        "Ġà¦īà¦ªà¦¸à¦¹",
        -12.380742954911502
      ],
      [
        "mail",
        -12.381447526680974
      ],
      [
        "à¦Ĩà¦ĩà¦ıà¦¸",
        -12.38452543842098
      ],
      [
        "à¦ĸà¦ľà¦¨à¦ķ",
        -12.387061352892637
      ],
      [
        "à¦ļà¦¤à¦²",
        -12.387597421136594
      ],
      [
        "Ġà¦ľà¦¨à¦¬à¦²",
        -12.388145746467718
      ],
      [
        "à§ªà§¨",
        -12.396203869945214
      ],
      [
        "à§¨à§¦à§§à§«",
        -12.397285231505656
      ],
      [
        "Ġà¦īà§İà¦ķ",
        -12.401538264021994
      ],
      [
        "à¦¤à¦¬à¦¤",
        -12.40231134088935
      ],
      [
        "à§¨à§¯",
        -12.40499313736465
      ],
      [
        "à¦¿âĢĻà¥¤",
        -12.406449843806973
      ],
      [
        "Ġà¦¡à¦Łà¦ķà¦®",
        -12.41355103668293
      ],
      [
        "Ġà§Ńà§®",
        -12.413760914941346
      ],
      [
        "Ġà§¬à§¯",
        -12.41504344694046
      ],
      [
        "Ġb",
        -12.418540521380095
      ],
      [
        "à¦§à¦¶à¦¤",
        -12.421301561940053
      ],
      [
        "Ġà§§à§¯à§¯à§¬",
        -12.421589147010259
      ],
      [
        "Ġà¦ħà¦ªà¦¬",
        -12.421874248668601
      ],
      [
        "à¦¿âĢĵ",
        -12.422585044102707
      ],
      [
        "âĢĮ",
        -12.426427484098882
      ],
      [
        "à¦ıà¦®à¦¸",
        -12.427371917485008
      ],
      [
        "à¦ıà¦ĸ",
        -12.42922664947153
      ],
      [
        "à¦°à¦ľà¦¨à¦ķ",
        -12.429344138981223
      ],
      [
        "à¦Ĩà¦¹à¦¤",
        -12.431483310605165
      ],
      [
        "Ġà¦¬à¦°à¦Ĺ",
        -12.431892109949347
      ],
      [
        "Ġà¦ĺà¦Łà¦¤",
        -12.432959600654154
      ],
      [
        "à¦ľà¦ĸà¦¬à¦°",
        -12.434909492848444
      ],
      [
        "Ġà¦¬à¦ĩà¦®",
        -12.435525384723134
      ],
      [
        "Ġà¦īà¦®",
        -12.439105433728432
      ],
      [
        "Ġà¦ļà¦®à§İà¦ķ",
        -12.439950538357586
      ],
      [
        "à¦ĩà¦īà¦¨",
        -12.440923905902705
      ],
      [
        "Ġà¦ľà¦¨à¦¸à¦®",
        -12.441765596830232
      ],
      [
        "à¦ıà¦®à¦ĩà¦ıà¦°",
        -12.44330380959346
      ],
      [
        "à§ĭà¥¤âĢĻ",
        -12.443756107011685
      ],
      [
        "Ġà¦Ĩà¦ĩà¦Ł",
        -12.44656385992407
      ],
      [
        "à¦¼à¦¾âĢĻ",
        -12.446853488050719
      ],
      [
        "à¦¡à¦«",
        -12.448072805162914
      ],
      [
        "Ġà¦¹à¦²à¦«",
        -12.448396826986105
      ],
      [
        "Ġà¦Ĳà¦¶",
        -12.449171101428236
      ],
      [
        "Ġà¦ħà¦¬à¦®",
        -12.45170997224943
      ],
      [
        "Ġà§¯à§¯",
        -12.452285829257299
      ],
      [
        "Ġà¦ıà¦¨à¦¬",
        -12.453392930809983
      ],
      [
        "à¦¼)",
        -12.454366910434835
      ],
      [
        "Ġà¦Ĩà¦«à¦ľ",
        -12.455205924933203
      ],
      [
        "bd",
        -12.45574612164518
      ],
      [
        "à¦ıà¦®à¦ĩà¦ı",
        -12.45731019744864
      ],
      [
        "Ġà¦®à¦¸à¦²",
        -12.457579020233599
      ],
      [
        "Ġà¦®à¦¨à¦¸",
        -12.45920444785908
      ],
      [
        "Ġà§®à§¨",
        -12.459465288009376
      ],
      [
        "Ġpeople",
        -12.461365514797894
      ],
      [
        "w",
        -12.464485242468005
      ],
      [
        "Ġc",
        -12.465313476798537
      ],
      [
        "Ġà§¯à§¬",
        -12.469264017687497
      ],
      [
        "Ġà¦¸à¦¹à¦ª",
        -12.470005695110487
      ],
      [
        "very",
        -12.473108774901426
      ],
      [
        "Ġà§Ńà§ª",
        -12.4756926864065
      ],
      [
        "à¦Ĩà¦ª",
        -12.476161974780098
      ],
      [
        "Ġno",
        -12.479695124525907
      ],
      [
        "Ġà¦ıà¦®à¦¡",
        -12.480479536568229
      ],
      [
        "Ġà§®à§ª",
        -12.482019462438448
      ],
      [
        "à¦°à¦Ĩà¦¨",
        -12.48224861409757
      ],
      [
        "Ġà§Ńà§¬",
        -12.482656339859929
      ],
      [
        "à§¨à§¦à§§à§©",
        -12.483697172530801
      ],
      [
        "Ġwe",
        -12.484051107316656
      ],
      [
        "à§ĭâĢĶ",
        -12.48405295684925
      ],
      [
        "Ġcan",
        -12.485206116547259
      ],
      [
        "Ġà§¨à§¦à§¦à§¨",
        -12.486318390557898
      ],
      [
        "à§¨à§¦à§§à§¬",
        -12.486559343076548
      ],
      [
        "1",
        -12.486901523403418
      ],
      [
        "Ġà¦ľà¦¨à¦Ĺ",
        -12.48703360836208
      ],
      [
        "ĠĠĠĠĠĠĠ",
        -12.488387585895405
      ],
      [
        "Ġà§®à§¬",
        -12.49060181560765
      ],
      [
        "Ġà¦ĩà¦īà¦ıà¦¸",
        -12.493759803869164
      ],
      [
        "Ġà¦°à¦®à¦¨",
        -12.494484234717513
      ],
      [
        "à¦¬à¦¸à¦®",
        -12.495914325206169
      ],
      [
        "Ġà¦¤à§İà¦ªà¦°",
        -12.496084028023922
      ],
      [
        "à¦®à¦īà¦¦",
        -12.496085793088962
      ],
      [
        "à¦Łà¦®à¦¹à¦²",
        -12.496418146357918
      ],
      [
        "à¦ıà¦ĩà¦ļ",
        -12.500236487249392
      ],
      [
        "Ġà¦ĩà¦ª",
        -12.501419985239064
      ],
      [
        "à¦¼à¦¿à¦Ĥ",
        -12.502861461268079
      ],
      [
        "à¦ıà¦¡",
        -12.503089177297905
      ],
      [
        "Ġà§Ńà§©",
        -12.504402393736221
      ],
      [
        "à¦¹à¦ķà¦°",
        -12.505487224026592
      ],
      [
        "à¦ıà¦¤",
        -12.508101234775502
      ],
      [
        "à¦ħà¦ªà¦°",
        -12.511356487403091
      ],
      [
        "à¦®à¦ĺ",
        -12.514021373230943
      ],
      [
        "Ġà¦¨à¦°à¦¸",
        -12.5143462185692
      ],
      [
        "à¦¶à¦¸à¦¹",
        -12.516657074185026
      ],
      [
        "Ġhim",
        -12.518361098937346
      ],
      [
        "Ġà§Ńà§Ń",
        -12.51952779155341
      ],
      [
        "à§ĩ?âĢĻ",
        -12.527026711686595
      ],
      [
        "Ġ#",
        -12.527287918638434
      ],
      [
        "Ġà¦¸à¦«à¦²à¦¤",
        -12.530071300019141
      ],
      [
        "Ġhas",
        -12.530969202488855
      ],
      [
        "Ġà¦Ĩà¦ĩà¦Ń",
        -12.534022171955431
      ],
      [
        "Ġà¦ıà¦ķà¦¦à¦®",
        -12.535266459802447
      ],
      [
        "Ġà¦ĩà¦¹",
        -12.535899301149065
      ],
      [
        "Ġà¦Ĩà¦ķà¦¸",
        -12.53811861735013
      ],
      [
        "Ġà¦Ĩà¦ķà¦¤",
        -12.539282853295166
      ],
      [
        "Ġd",
        -12.546921655830644
      ],
      [
        "Ġà¦®à¦ĵà¦¦",
        -12.54821807085305
      ],
      [
        "Ġà¦ľà¦¨à¦ªà¦¥",
        -12.54969820008289
      ],
      [
        "Ġà§®à§§",
        -12.551484339762357
      ],
      [
        "Ġà§®à§®",
        -12.552454741289523
      ],
      [
        "à¦Łà¦«à¦°",
        -12.556206855805087
      ],
      [
        "à¦ľà¦ªà¦¥",
        -12.559707740501146
      ],
      [
        "âķ£",
        -12.561836180844287
      ],
      [
        "Ġà§Ńà§¯",
        -12.563584546949796
      ],
      [
        "Ġïģ¬",
        -12.566053917930603
      ],
      [
        "Ġà§®à§©",
        -12.567355531344068
      ],
      [
        "Ġà§®à§Ń",
        -12.57323935865696
      ],
      [
        "Ġà¦ħà¦¹",
        -12.57466381935226
      ],
      [
        "Ġà§¯à§¦à§¦",
        -12.57621818906182
      ],
      [
        "A",
        -12.582174131622347
      ],
      [
        "Ġà¦ıà¦®à¦¬",
        -12.5822661624948
      ],
      [
        "à¦ĩà¦¨à¦«",
        -12.588271418290184
      ],
      [
        "Ġà¦Ŀà¦Ĺ",
        -12.588345890349936
      ],
      [
        "à¦¿;",
        -12.591076363787177
      ],
      [
        "Ġà¦ĩà¦¨à¦¡",
        -12.591431921405078
      ],
      [
        "ĠWhat",
        -12.591456078463583
      ],
      [
        "Ġà¦īà¦ĸ",
        -12.592438137430069
      ],
      [
        "à§©à§ª",
        -12.600917350225679
      ],
      [
        "à¦ĩà¦ªà¦°",
        -12.601442999844943
      ],
      [
        "Ġà§¯à§¨",
        -12.603646122218816
      ],
      [
        "Ġà¦Ĺà¦£à¦ľ",
        -12.611326005787829
      ],
      [
        "Ġà¦¬à¦ĩà¦Ł",
        -12.616522330680619
      ],
      [
        "à¦Ĺà¦łà¦ķ",
        -12.618571731669133
      ],
      [
        "à§©à§¬",
        -12.620264253480174
      ],
      [
        "à§©à§§",
        -12.62303090201851
      ],
      [
        "à¦ıà¦ª",
        -12.628675128315406
      ],
      [
        "Ġà¦ĭà¦¤",
        -12.628675626984297
      ],
      [
        "à§ĩà¥¤âĢĺ",
        -12.629978854058896
      ],
      [
        "à§©à§©",
        -12.631064646104603
      ],
      [
        "Ġà¦ĸà¦¬à¦°à¦Ł",
        -12.632289210511505
      ],
      [
        "à¦¹à¦īà¦¦",
        -12.637200797986425
      ],
      [
        "Ġà§¯à§§",
        -12.639198536870673
      ],
      [
        "Ġdo",
        -12.641697866670834
      ],
      [
        "Ġà¦īà¦ªà¦¬",
        -12.643440221935094
      ],
      [
        "4",
        -12.647014053474974
      ],
      [
        "3",
        -12.650359807917333
      ],
      [
        "à¦ªà¦£à¦¨",
        -12.65136240800079
      ],
      [
        "à¦ĺà¦Ł",
        -12.65253713434402
      ],
      [
        "à§¬à§«",
        -12.655231922685413
      ],
      [
        "Ġyour",
        -12.655424991220857
      ],
      [
        "Ġà¦ħà¦ªà¦ļ",
        -12.657031194451342
      ],
      [
        "à§Ńà§¦",
        -12.65909744010224
      ],
      [
        "ïģ¬",
        -12.66247047998173
      ],
      [
        "Ġtheir",
        -12.664001010332637
      ],
      [
        "à¦¥à¦²à¦¬",
        -12.665312258826152
      ],
      [
        "Ġà¦¯à¦¤à¦",
        -12.66654977822799
      ],
      [
        "à¦¼à¦¾)",
        -12.667917067669048
      ],
      [
        "Ġà¦®à¦¹à¦¸",
        -12.668301052448165
      ],
      [
        "ĠâĢĭ",
        -12.670129657633169
      ],
      [
        "Ġà¦ħà¦ªà¦¹",
        -12.671186980749717
      ],
      [
        "âķ¢",
        -12.679409152488162
      ],
      [
        "Ġà§¯à§Ń",
        -12.680015602057388
      ],
      [
        "à¦¾âĢĻ,",
        -12.6806378365701
      ],
      [
        "Ġà¦ķà¦¨à¦Ń",
        -12.68068768348894
      ],
      [
        "Ġthey",
        -12.686361311216379
      ],
      [
        "Ġà¦¸à¦ĵà¦ľ",
        -12.690467303766908
      ],
      [
        "Ġà§®à§¯",
        -12.69071383911066
      ],
      [
        "à¦¯à¦Łà¦ķ",
        -12.692136989146867
      ],
      [
        "à¦īà¦ªà¦ķà¦°à¦£",
        -12.692703063119676
      ],
      [
        "à¦Łà¦¸à¦¹",
        -12.693381014192607
      ],
      [
        "à¦ĩà¦īà¦°",
        -12.694241091458148
      ],
      [
        "Ġabout",
        -12.700224618487978
      ],
      [
        "Ġà¦Ĺà¦£à¦Ńà¦¬à¦¨",
        -12.700520963420342
      ],
      [
        "Ġà¦Ĩà¦ĩà¦ľ",
        -12.700552104081599
      ],
      [
        "Ġà§§à§¯à§¯à§§",
        -12.702941017056176
      ],
      [
        "Ġà¦Ĩà¦Ĺà¦®à¦¨",
        -12.70432780697548
      ],
      [
        "à§¨à§¦à§§à§¨",
        -12.704577902835618
      ],
      [
        "Ġà¦¨à¦Ĺà¦°à¦¬",
        -12.705101836945218
      ],
      [
        "Ġà¦Ĩà¦ªà¦¸",
        -12.705521295650325
      ],
      [
        "Ġà¦¬à¦¹à¦¨à¦ķ",
        -12.706363284913092
      ],
      [
        "ÑĢÐ·ÐĹ",
        -12.706769353259787
      ],
      [
        "Ġher",
        -12.7096097007148
      ],
      [
        "à¦ĩà¦²à¦«à¦²à¦ķ",
        -12.710199729690991
      ],
      [
        "à¦¤à¦¥",
        -12.710314856996485
      ],
      [
        "à§ªà§®",
        -12.710419407230557
      ],
      [
        "Ġà§¯à§©",
        -12.71503657388348
      ],
      [
        "Ġà¦ľà¦¨à¦®à¦¤",
        -12.716359169757665
      ],
      [
        "Ġà§§à§¯à§¯à§¦",
        -12.717474220375482
      ],
      [
        "Ġà¦¨à¦ķà¦²",
        -12.717534385859516
      ],
      [
        "Ġà§¯à§®",
        -12.717916128925022
      ],
      [
        "ĠĠĠĠĠ",
        -12.718876557269688
      ],
      [
        "à¦²à¦¸à¦¡",
        -12.723902709494478
      ],
      [
        "à¦²à¦ķà¦Ń",
        -12.724038452305969
      ],
      [
        "Ġà§§à§¯à§¯à§¯",
        -12.725071491030842
      ],
      [
        "à§İà¦«à¦°",
        -12.726211046144016
      ],
      [
        "âķĿ",
        -12.730691391184308
      ],
      [
        "Ġà¦ħà¦®à¦°",
        -12.731709887585005
      ],
      [
        "à¦¯à¦ªà¦¦",
        -12.734454830629492
      ],
      [
        "à¦¸à¦¦à¦¸",
        -12.735829027285885
      ],
      [
        "Ġone",
        -12.736490750562426
      ],
      [
        "à§İà¦«",
        -12.736683975968383
      ],
      [
        "Ġà¦¦à¦²à¦¬à¦¦à¦²",
        -12.738030637019364
      ],
      [
        "Ġ3",
        -12.739586230543644
      ],
      [
        "Ġà¦ķà¦¬à¦²",
        -12.739809947610098
      ],
      [
        "Ġà¦īà¦·",
        -12.74486797439666
      ],
      [
        "Ġà§§à§¯à§¯à§®",
        -12.749902895029907
      ],
      [
        "ĠĠĠĠĠĠĠĠĠĠĠĠĠĠĠĠ",
        -12.753273114104095
      ],
      [
        "à§©à§Ń",
        -12.753283390757417
      ],
      [
        "Ġà¦ĩà¦®à¦¨",
        -12.75412891589109
      ],
      [
        "à¦¸à¦¸à¦¹",
        -12.755755572858163
      ],
      [
        "à¦°à¦ªà¦°à¦ĩ",
        -12.757123502288216
      ],
      [
        "'",
        -12.758068745858886
      ],
      [
        "Ġà¦ĩà¦¨à¦Ń",
        -12.762056875879502
      ],
      [
        "Ġà¦Īà¦¦à¦Ĺ",
        -12.765126500851665
      ],
      [
        "Ī",
        -12.765378895102518
      ],
      [
        "Ġà¦°à¦¤à¦¨",
        -12.768031984267928
      ],
      [
        "à¦¿à¦Ĥ-",
        -12.769109513227907
      ],
      [
        "à¦¹à§İ",
        -12.769226745846206
      ],
      [
        "ĠÑĢÐ¶Ð¥ÑĢÐ¶",
        -12.771586548430104
      ],
      [
        "Ġà¦¸à¦ķà¦²",
        -12.772173799287145
      ],
      [
        "à¦¨à¦¬à¦¸à¦®",
        -12.772303965315125
      ],
      [
        "à¦ıà¦¨à¦¬",
        -12.773320259910747
      ],
      [
        "Ġà¦ıà¦ķà¦¤à¦°à¦«",
        -12.773906587164845
      ],
      [
        "Ġday",
        -12.77721241456541
      ],
      [
        "Ġà¦Ĺà¦²à¦«",
        -12.778824079427071
      ],
      [
        "Ġà¦¡à¦Łà¦ķà¦®à¦ķ",
        -12.782288047206212
      ],
      [
        "Ġà¦ĩà¦¡",
        -12.786303042060606
      ],
      [
        "à§«à§¦à§¦",
        -12.78657684707569
      ],
      [
        "://",
        -12.786619432700906
      ],
      [
        "à¦ıà¦®à¦ı",
        -12.787753088711462
      ],
      [
        "âĢĺ",
        -12.79234151855859
      ],
      [
        "à¦¶à¦²à¦Ĺà¦¤",
        -12.793133094179217
      ],
      [
        "à¦·à¦ķà¦ķ",
        -12.794105334723671
      ],
      [
        "Ġtime",
        -12.79686759554853
      ],
      [
        "à¦¯à¦Łà¦ķà¦",
        -12.796923999712373
      ],
      [
        "Ġà¦Ĺà¦£à¦¨",
        -12.798767738573499
      ],
      [
        "ĠThey",
        -12.801288680142957
      ],
      [
        "Ġ2",
        -12.805639410328078
      ],
      [
        "Ġ5",
        -12.806029719351162
      ],
      [
        "à§ĭ!",
        -12.807404257782974
      ],
      [
        "à¦¬à¦°à¦ĩ",
        -12.808612783056223
      ],
      [
        "Ġiv",
        -12.809218379964374
      ],
      [
        "à¦¸à¦ĵà¦ľ",
        -12.81312797990002
      ],
      [
        "à¦Ĩà¦¸à¦²",
        -12.813183279407435
      ],
      [
        "à¥¤ïģ¬",
        -12.81345349230983
      ],
      [
        "Ġà¦Ĺà¦£à¦Ń",
        -12.81361806343979
      ],
      [
        "Ġà¦¨à¦¬à¦¨",
        -12.817148127222422
      ],
      [
        "Ġà§©à§«à§¦",
        -12.81791315888282
      ],
      [
        "à¦ĺà¦®",
        -12.818947178570637
      ],
      [
        "Ġà¦¹à¦ľà¦®",
        -12.819068511234612
      ],
      [
        "à¦Ĩà¦ľà¦ķ",
        -12.820442689023238
      ],
      [
        "Ġall",
        -12.821339683263393
      ],
      [
        "Ġsaid",
        -12.821831649396188
      ],
      [
        "à¦£à¦Ĺà¦¤",
        -12.826183336580534
      ],
      [
        "Ġà§§à§©à§¦",
        -12.82691941969357
      ],
      [
        "à§¨à§¦à§§à§§",
        -12.82830226107853
      ],
      [
        "à¦ıà¦¸à¦¡",
        -12.831574641971063
      ],
      [
        "à¦¦à¦¨à¦¶",
        -12.834857332869685
      ],
      [
        "à¦ıà¦¸à¦ĩà¦ı",
        -12.834879057883636
      ],
      [
        "Ġà¦ħà¦¬à¦¤à¦°à¦£",
        -12.836651517247326
      ],
      [
        "Ġlife",
        -12.838946871674018
      ],
      [
        "Ġà§¯à§ª",
        -12.839696432520078
      ],
      [
        "Ġfollowing",
        -12.843376554189314
      ],
      [
        "à¦ªà¦¨à¦Ĺà¦°",
        -12.846223229863517
      ],
      [
        "Ġà§§à§¬à§ª",
        -12.847820738349046
      ],
      [
        "Ġmy",
        -12.847857904098634
      ],
      [
        "Ġman",
        -12.848527620163024
      ],
      [
        "Ġà¦ħà¦¨à¦¶à¦¨",
        -12.849025502544873
      ],
      [
        "I",
        -12.849914796932243
      ],
      [
        "Ġà§§à§®à§¦",
        -12.856856758290657
      ],
      [
        "à¦ıà¦¸à¦ĩà¦¸",
        -12.85720077255272
      ],
      [
        "iv",
        -12.858118620843825
      ],
      [
        "Ġà¦®à¦¤à¦²à¦¬",
        -12.86083405044542
      ],
      [
        "à¦Ĥ-",
        -12.86207897399979
      ],
      [
        "à¦¶à¦ªà¦¥",
        -12.866062057258675
      ],
      [
        "Ġà§§à§§à§¦",
        -12.867536186940828
      ],
      [
        "Ġà¦ļà¦ķà¦¬",
        -12.873231456767115
      ],
      [
        "à¦ĩà¦ĩà¦ī",
        -12.875268275448466
      ],
      [
        "Ġà¦ħà¦¡",
        -12.87602735390194
      ],
      [
        "à¦¬à¦²à¦®",
        -12.8820809771811
      ],
      [
        "5",
        -12.883053526142364
      ],
      [
        "ĠïĤ¾",
        -12.883522954518444
      ],
      [
        "à§Ģà¦Ĥ",
        -12.883792316724682
      ],
      [
        "Ġshould",
        -12.884965653863247
      ],
      [
        "x",
        -12.886467857217706
      ],
      [
        "Ġà¦ĩà¦¨à¦ľ",
        -12.888396280823514
      ],
      [
        "à¦ĩà¦ĸ",
        -12.888544790323422
      ],
      [
        "Ġthere",
        -12.890073563666354
      ],
      [
        "Ġthis",
        -12.890503220293763
      ],
      [
        "Ġà¦¬à¦¸à¦¤à¦ĺà¦°",
        -12.894427459606652
      ],
      [
        "Ġà¦ĩà¦°à¦«",
        -12.894923747390356
      ],
      [
        "à¦īà¦«à¦²",
        -12.899299428548378
      ],
      [
        "ĠWe",
        -12.902020443163167
      ],
      [
        "à¦¬à¦Ľà¦°à¦ĩ",
        -12.902382028022394
      ],
      [
        "à¦Ĩà¦Ł",
        -12.902791672651883
      ],
      [
        "à¦ıà¦¸à¦Ł",
        -12.902986008598448
      ],
      [
        "Ġà§§à§ªà§ª",
        -12.907571409515842
      ],
      [
        "Ġà¦¦à¦ĸà¦²à¦",
        -12.909354970845062
      ],
      [
        "Ġà¦¹à¦ĩà¦ļà¦ĩ",
        -12.910422711690451
      ],
      [
        "à¦ħà¦«",
        -12.915692742626998
      ],
      [
        "à¦®à¦¨à¦ĩ",
        -12.918680820737595
      ],
      [
        "Ġà§§à§ªà§¦",
        -12.919394456014121
      ],
      [
        "Ġà¦ļà¦ķà¦°",
        -12.919672035880666
      ],
      [
        "Ġthem",
        -12.920600535141457
      ],
      [
        "à¦¯à¦¥à¦Ń",
        -12.92200382825047
      ],
      [
        "Ġà¦¸à¦¹à¦¸",
        -12.922398557106778
      ],
      [
        "Ġwere",
        -12.92857272296079
      ],
      [
        "à¦ıà¦Ń",
        -12.930184133690297
      ],
      [
        "ĠIn",
        -12.931122203591066
      ],
      [
        "à§«à§¨",
        -12.934029814885854
      ],
      [
        "Ġ1",
        -12.936106112340697
      ],
      [
        "Ġà¦Ĩà¦¦à¦®",
        -12.939760678061397
      ],
      [
        "er",
        -12.94139314627615
      ],
      [
        "Ġhad",
        -12.942693497194835
      ],
      [
        "Ġà¦Łà¦ªà¦ķ",
        -12.946574653090758
      ],
      [
        "à¦Ńà¦ľà¦¨à¦ķ",
        -12.946761848641028
      ],
      [
        "Ġà¦¨à¦ĵà¦¶",
        -12.94710845734893
      ],
      [
        "Ġwill",
        -12.948162773111864
      ],
      [
        "à¦ıà¦¨à¦ıà¦¨",
        -12.948435312255452
      ],
      [
        "Ġà¦°à¦ĩà¦²",
        -12.948693121559138
      ],
      [
        "à¥¤âĢĻâĢĺ",
        -12.950614201402473
      ],
      [
        "Ġà¦ĩà¦¨à¦«à¦°à¦®",
        -12.950835083498689
      ],
      [
        "à¦¼à¦¿-",
        -12.950896035812
      ],
      [
        "à¦ıà¦ıà¦¸à¦Ĩà¦ĩ",
        -12.951759572916814
      ],
      [
        "à¦Ĩà¦¡",
        -12.955252430261641
      ],
      [
        "Ġanswer",
        -12.956336589788016
      ],
      [
        "ÑĢÐ¶Ð¿ÑĢÐ¶",
        -12.956942948217673
      ],
      [
        "à¦ļà¦ªà¦°",
        -12.957205828547512
      ],
      [
        "à§ģà¦Ĥ",
        -12.959024392462446
      ],
      [
        "à§ĩà¥¤*",
        -12.959241920563041
      ],
      [
        "Ġme",
        -12.959268712386628
      ],
      [
        "à§¨à§¦à§§à§Ń",
        -12.961584606267579
      ],
      [
        "]",
        -12.967016983173751
      ],
      [
        "ĠâĢĶ.",
        -12.968266692365441
      ],
      [
        "Ġà¦¤à¦¤à¦ĩ",
        -12.96907536893454
      ],
      [
        "Ġà¦®à¦ĩà¦¨",
        -12.97114676288669
      ],
      [
        "Ġà¦ıà¦«à¦¡",
        -12.971276594574988
      ],
      [
        ").",
        -12.97448598329248
      ],
      [
        "à¦®à¦¨à¦Ĺà¦°",
        -12.977185069428145
      ],
      [
        "à¦Ĩà¦°à¦¬",
        -12.980170776586974
      ],
      [
        "Ġà¦ĩà¦īà¦ıà¦¨",
        -12.980772739717297
      ],
      [
        "ĠB",
        -12.980850371641461
      ],
      [
        "Ġà§§à§¯à§Ńà§¨",
        -12.981265533453346
      ],
      [
        "Ġïģ®",
        -12.982446481636337
      ],
      [
        "à¦¬à¦¸à¦Ł",
        -12.983114223101119
      ],
      [
        "à¦¿âĢĻ,",
        -12.983268768011179
      ],
      [
        "Ġà§§à§¬à§¦",
        -12.984575941808789
      ],
      [
        "à§İà¦ªà¦°",
        -12.985933688860321
      ],
      [
        "à¦Ĩà¦¬à¦°",
        -12.986227907593808
      ],
      [
        "Ġor",
        -12.986824116483081
      ],
      [
        "ĠÑĢÐ¶Ð¼ÑĢÐ¶",
        -12.988246073255269
      ],
      [
        "ĠĠĠĠĠĠ",
        -12.98972852128032
      ],
      [
        "Ġà§ªà§«à§¦",
        -12.990844590576767
      ],
      [
        "6",
        -12.991011053420845
      ],
      [
        "Ġà¦¯à¦ĸà¦¨à¦ĩ",
        -12.991901908437416
      ],
      [
        "Ġquestion",
        -12.993652389851412
      ],
      [
        "Ġà¦¸à§İ",
        -12.995158766017845
      ],
      [
        "à¦¸à¦īà¦¦",
        -12.999428646579396
      ],
      [
        "Ġshe",
        -13.000122553648104
      ],
      [
        "Ġà§§à§¯à§¯à§¨",
        -13.001192355714185
      ],
      [
        "à¦īà§İà¦¸à¦¬",
        -13.004269590696335
      ],
      [
        "à¦īà¦¦à¦ķ",
        -13.005116659831119
      ],
      [
        "à¦®à¦ķà¦°à¦£",
        -13.008098232510186
      ],
      [
        "Ġà§§à§¯à§¯à§Ń",
        -13.010080069750188
      ],
      [
        "Ġgood",
        -13.014587397864563
      ],
      [
        "à¦Ĩà¦Łà¦ķ",
        -13.015117390675304
      ],
      [
        "à¦Ĩà¦°à¦ª",
        -13.021911842084053
      ],
      [
        "Ġgo",
        -13.021937129360014
      ],
      [
        "Ġà¦¬à¦°à¦«",
        -13.022993659698809
      ],
      [
        "Ġà¦īà¦",
        -13.023596896054169
      ],
      [
        "Ġà§¨à§¦à§¨à§§",
        -13.024077350014121
      ],
      [
        "Ġà¦ĺà¦Łà¦¬",
        -13.025660259112502
      ],
      [
        "à¦Ĥ,",
        -13.02733233895923
      ],
      [
        "Ġà¦ıà¦¸à¦ı",
        -13.027724572481832
      ],
      [
        "Ġà¦¤à¦°à¦«",
        -13.028633427844294
      ],
      [
        "Ġà¦ĩà¦¨à¦«",
        -13.030887046789697
      ],
      [
        "à§§à§¦à§¦",
        -13.031235724743237
      ],
      [
        "Ġà¦ĩà¦īà¦ľ",
        -13.033261299557974
      ],
      [
        "Ġà¦«à¦²à¦ª",
        -13.036485976124041
      ],
      [
        "Ġalso",
        -13.036602665168584
      ],
      [
        "à¦¦à¦¨à¦ª",
        -13.03984203300977
      ],
      [
        "à¦ªà¦ķà¦¥",
        -13.041874489281955
      ],
      [
        "à¦Ĺà¦®à¦ķ",
        -13.04232374827492
      ],
      [
        "Ġà¦ľà¦¨à¦¸à¦¨",
        -13.043091923295696
      ],
      [
        "ıà¦¸à¦ıà¦®à¦ıà¦¸",
        -13.04334309571665
      ],
      [
        "à§©à§¯",
        -13.045432002915518
      ],
      [
        "Ġà¦Ĩà¦ĩà¦°",
        -13.046770784761737
      ],
      [
        "à¦ħà¦²",
        -13.047384825127345
      ],
      [
        "à¦ıà¦¸à¦ıà¦¸",
        -13.049448700072578
      ],
      [
        "Ġà¦ıà¦ıà¦¸à¦Ĩà¦ĩ",
        -13.051280980305984
      ],
      [
        "Ġà¦ķà¦¤à¦ľà¦¨",
        -13.051591098397914
      ],
      [
        "à¦¿à¦ĤâĢĻ",
        -13.053857023233018
      ],
      [
        "à¦²à¦¨à¦°à¦¤",
        -13.054020645016703
      ],
      [
        "Ġwords",
        -13.054830549403935
      ],
      [
        "à¦ıà¦¶",
        -13.055276993864345
      ],
      [
        "à§¨à§¦à§§à§¦",
        -13.056064796394422
      ],
      [
        "Ġà¦ĩà¦¬à¦¨",
        -13.056449628619053
      ],
      [
        "à¦ıà¦²à¦ľ",
        -13.056680550319383
      ],
      [
        "ĠShe",
        -13.06372932957034
      ],
      [
        "âķĸ",
        -13.063984950151852
      ],
      [
        "à§ªà§Ń",
        -13.066651682813168
      ],
      [
        "à¦£à¦®à¦¨",
        -13.066922749197873
      ],
      [
        "Ġà¦§à¦²",
        -13.068688045216291
      ],
      [
        "à¦ħà¦®",
        -13.068917093844457
      ],
      [
        "à¦ıà¦ıà¦«",
        -13.069306953557842
      ],
      [
        "Ġsome",
        -13.07019488013379
      ],
      [
        "Ġà§¨à§¦à§¨à§",
        -13.07242867680143
      ],
      [
        "Ġà¦ľà¦Ĺà§İ",
        -13.072710431831787
      ],
      [
        "Ġcountry",
        -13.075782713531312
      ],
      [
        "m",
        -13.076488285656174
      ],
      [
        "ĠBangladesh",
        -13.079080166146472
      ],
      [
        "Ġà§§à§¯à§¯à§«",
        -13.079100735989234
      ],
      [
        "=",
        -13.081588611250666
      ],
      [
        "à¦¯à¦ľà¦¨à¦ķ",
        -13.082861572355169
      ],
      [
        "à§®à§¦",
        -13.085126844828338
      ],
      [
        "Ġà§§à§¯à§¯à§ª",
        -13.088988732039342
      ],
      [
        "à§Ńà§«",
        -13.093323349642866
      ],
      [
        "es",
        -13.101669122264163
      ],
      [
        "Ġquestions",
        -13.101766338193368
      ],
      [
        "à¦¸à¦«à¦°à¦®",
        -13.1025213829278
      ],
      [
        "Ġà¦ıà¦¹à¦¸",
        -13.10258796738623
      ],
      [
        "à§¨à§¦à§¦à§¯",
        -13.10483090408777
      ],
      [
        "Ġà§§à§¯à§Ńà§«",
        -13.10510591167212
      ],
      [
        "Ġà¦¬à¦ľà¦²",
        -13.105688928776777
      ],
      [
        "à¦°à¦ľà¦¨à¦¨",
        -13.10702941272043
      ],
      [
        "ÑĢÐ·ÐĹÑĢÐ¶",
        -13.107722883793963
      ],
      [
        "Ġsentences",
        -13.109453220712236
      ],
      [
        "Ġschool",
        -13.109933608258277
      ],
      [
        "à¦ĩà¦¸à¦²",
        -13.110062533205205
      ],
      [
        "à¦ıà¦Ĺ",
        -13.110581415272513
      ],
      [
        "à¦ľà¦ķà¦²",
        -13.11185408353049
      ],
      [
        "à§ªà§©",
        -13.112365055185293
      ],
      [
        "à¦²à¦¤à¦ª",
        -13.11447402303639
      ],
      [
        "à¦Łà¦®à¦¸",
        -13.114753019192133
      ],
      [
        "Ġà¦Ĩà¦ľà¦ĩ",
        -13.114849832193052
      ],
      [
        "Ġà¦Ĩà¦ĩà¦²",
        -13.115080812356085
      ],
      [
        "à¦¸à¦Ĩà¦ª",
        -13.116588139432476
      ],
      [
        "Ġà¦ľà¦²à¦ª",
        -13.117527011941778
      ],
      [
        "à¦¶à¦¬à¦ª",
        -13.117953217078707
      ],
      [
        "à¦ħà¦¥à¦ļ",
        -13.119949880214918
      ],
      [
        "à§Ģ)à¥¤",
        -13.120488482432313
      ],
      [
        "à¦ıà¦¨à¦¡",
        -13.12437605691054
      ],
      [
        "à¦Ĺà¦¸à¦¹",
        -13.128212088945695
      ],
      [
        "à¦Ĺà¦£à¦¤",
        -13.128780848002204
      ],
      [
        "ĠBut",
        -13.129712434218286
      ],
      [
        "Ġother",
        -13.131590905238792
      ],
      [
        "Ġà§§à§¦à§«",
        -13.131924583393328
      ],
      [
        "Ġdid",
        -13.1361804788368
      ],
      [
        "à§ªà§ª",
        -13.13769534771517
      ],
      [
        "Ġà¦ıà¦ķà¦°à¦ķà¦®",
        -13.137831085147388
      ],
      [
        "à¦Īà¦¨",
        -13.143229273444387
      ],
      [
        "à¦¨à¦®à¦ľ",
        -13.143990822141966
      ],
      [
        "à§Ńà§§",
        -13.146615559934709
      ],
      [
        "à¦ľà¦¸à¦¹",
        -13.147609288603228
      ],
      [
        "Ġus",
        -13.149435458465927
      ],
      [
        "à§¨à§¦à§¦",
        -13.150547717553465
      ],
      [
        "à§«à§®",
        -13.150760041453367
      ],
      [
        "à§ĩ...",
        -13.15184402271316
      ],
      [
        "ıà¦ĩà¦ļà¦ıà¦¸à¦¸",
        -13.152130612732766
      ],
      [
        "Ġup",
        -13.152830987243961
      ],
      [
        "à¦ıà¦ľ",
        -13.15363635217269
      ],
      [
        "Ġà¦īà¦ªà¦ª",
        -13.155805874865086
      ],
      [
        "Ġworld",
        -13.156390392232996
      ],
      [
        "à§ªà§¬",
        -13.158785148665118
      ],
      [
        "Ġà¦¸à¦¹à¦¸à¦®",
        -13.159077124326052
      ],
      [
        "Ġà¦Ĩà¦²à¦®à¦ķ",
        -13.167256815152353
      ],
      [
        "Ġà¦Ĩà¦¹à¦°à¦£",
        -13.16897062124988
      ],
      [
        "[",
        -13.169472949115521
      ],
      [
        "Ġdoes",
        -13.170437179047019
      ],
      [
        "à¦¬à¦¹à¦¨à¦®",
        -13.170630935469623
      ],
      [
        "Ġà¦¬à¦¦à¦°à¦Ĺ",
        -13.171281276281444
      ],
      [
        "à¦ıà¦ĩà¦ļà¦¡",
        -13.173716064230101
      ],
      [
        "Ġà¦Ĩà¦ľà¦®à¦²",
        -13.17605169048946
      ],
      [
        "Ġà¦Ķ",
        -13.17613955206048
      ],
      [
        "Ġmother",
        -13.176890691779608
      ],
      [
        "Ġà¦ķà¦¨à¦ľ",
        -13.177072531726568
      ],
      [
        "Ġà§§à§¦à§§",
        -13.177807390836865
      ],
      [
        "Ġà§§à§¨à§«",
        -13.17800868774584
      ],
      [
        "Ġà¦¤à¦²à¦¬",
        -13.17945889989639
      ],
      [
        "à§ªà§§",
        -13.18054292015532
      ],
      [
        "Ġà¦¦à¦°à¦¬",
        -13.182488924014697
      ],
      [
        "Ġx",
        -13.183127297043855
      ],
      [
        "Ġà¦ķà¦¦à¦®à¦¤",
        -13.18474741924204
      ],
      [
        "Ġbut",
        -13.187303546951753
      ],
      [
        "à§Ģ!",
        -13.189659286189851
      ],
      [
        "à¦ªà¦ķà¦Ń",
        -13.193229922444083
      ],
      [
        "v",
        -13.196839639541233
      ],
      [
        "ĠC",
        -13.200390522553558
      ],
      [
        "à¦¹à¦ľà¦¨à¦ķ",
        -13.21267334844265
      ],
      [
        "Ġà¦Ĺà¦łà¦¨à¦¤",
        -13.212781461300793
      ],
      [
        "à¦¯à¦¬à¦ĩ",
        -13.213816431217158
      ],
      [
        "in",
        -13.217769048793837
      ],
      [
        "Ġmore",
        -13.217783756678099
      ],
      [
        "Ġà¦ħà¦°à¦«",
        -13.218416164394894
      ],
      [
        "Ġà¦Ĩà¦ĩà¦¬",
        -13.218873666302596
      ],
      [
        "Ġ4",
        -13.219014114205912
      ],
      [
        "âĢ¢",
        -13.219717011470703
      ],
      [
        "r",
        -13.22076877715307
      ],
      [
        "à¦ªà¦ķà¦¥à¦¨",
        -13.225913558225155
      ],
      [
        "Ġà§§à§¯à§Ńà§©",
        -13.225964031685628
      ],
      [
        "Ġ10",
        -13.226456606165918
      ],
      [
        "Ġà¦ĩà¦Ľ",
        -13.22818993690511
      ],
      [
        "à¦¿/",
        -13.229997410089425
      ],
      [
        "à§¨à§¦à§¦à§®",
        -13.231898171074963
      ],
      [
        "Ġfood",
        -13.234298557718347
      ],
      [
        "ĠS",
        -13.239335668061551
      ],
      [
        "hich",
        -13.23990926381339
      ],
      [
        "à¦ħà¦Ĺ",
        -13.241549628037554
      ],
      [
        "ıà¦®à¦ıà¦®à¦ĩà¦ī",
        -13.24306768923474
      ],
      [
        "à¦ĭà¦£",
        -13.244316930679512
      ],
      [
        "âĢĶâĢĺ",
        -13.244581686348656
      ],
      [
        "Ġà¦ħà¦ĺà¦Łà¦¨",
        -13.249936525545694
      ],
      [
        "à¦¦à¦ĸà¦²",
        -13.25184987805973
      ],
      [
        "Ġà¦Ĺà¦£à¦§à¦°",
        -13.254714931361214
      ],
      [
        "à¦¼à¦¾:",
        -13.255376899874987
      ],
      [
        "à¦Ĩà¦¹",
        -13.256251250809797
      ],
      [
        "à¦Łà¦¸à¦ħ",
        -13.256343198832575
      ],
      [
        "à¦¹à¦ªà¦°",
        -13.257644659128033
      ],
      [
        "ÑĢÐµÐ´",
        -13.25979717259017
      ],
      [
        "Ġà¦°à¦£à¦ľ",
        -13.260674192623831
      ],
      [
        "Ġà¦®à¦ķà¦¬",
        -13.261378621007484
      ],
      [
        "Ġ'",
        -13.261815621978734
      ],
      [
        "Ġà¦ĵà¦ªà¦°à¦ĵ",
        -13.262681591800906
      ],
      [
        "Ġmany",
        -13.265704013804177
      ],
      [
        "à¦ªà¦²à¦¸",
        -13.265787434357648
      ],
      [
        "The",
        -13.266005569304852
      ],
      [
        "Ġà§§à§¯à§®à§¬",
        -13.266664025866135
      ],
      [
        "Ġhttp",
        -13.26752581991126
      ],
      [
        "à¦ķà¦Łà¦¤à¦®",
        -13.269058368389313
      ],
      [
        "Ġà¦ľà¦¨à¦ªà¦¦",
        -13.26991274103829
      ],
      [
        "à¦ķà¦ªà¦¥",
        -13.27014641398973
      ],
      [
        "à¦ıà¦ıà¦¸",
        -13.270632520389501
      ],
      [
        "Ġà¦īà¦ªà¦ļ",
        -13.271506677469397
      ],
      [
        "à¦¾...",
        -13.273225389974606
      ],
      [
        "Ġthan",
        -13.274072867136411
      ],
      [
        "Set",
        -13.274261876860418
      ],
      [
        "à¦¾?âĢĻ",
        -13.274525828509423
      ],
      [
        "ĠThere",
        -13.275654428357344
      ],
      [
        "Ġlike",
        -13.277055685886655
      ],
      [
        "à¦ĺà¦¬à¦",
        -13.279616408441452
      ],
      [
        "Ġà¦ıà¦®à¦¸",
        -13.282118584618154
      ],
      [
        "Ġà¦ķà¦²à¦¹",
        -13.284008947565951
      ],
      [
        "à¦°à¦¸à¦«",
        -13.285540412231745
      ],
      [
        "Ġà¦¸à¦ľà¦²",
        -13.285777272151844
      ],
      [
        "Ġwho",
        -13.28645008533722
      ],
      [
        "Ġà¦°à¦¥",
        -13.286979811139064
      ],
      [
        "à¦¸à¦¬à¦ľ",
        -13.287910029417102
      ],
      [
        "à¦Ĩà¦«à¦Ĺ",
        -13.291845908138985
      ],
      [
        "ÑĢÐ¶Ð¸",
        -13.292136906421693
      ],
      [
        "Ġmake",
        -13.294170936976546
      ],
      [
        "ĩà¦ıà¦ıà¦¨à¦ıà¦¸",
        -13.295046470683985
      ],
      [
        "à¦ĺà¦¡",
        -13.297941441504996
      ],
      [
        "Ġà¦ıà¦ķà¦¦à¦®à¦",
        -13.298161396706423
      ],
      [
        "Ġstudents",
        -13.298722155729422
      ],
      [
        "à¦«à¦²à¦¨",
        -13.299639814009577
      ],
      [
        "à¦ĩà¦ªà¦²",
        -13.299833073683267
      ],
      [
        "à¦¬à¦²à¦ĩ",
        -13.303479999771913
      ],
      [
        "à¦ıà¦¸à¦ı",
        -13.305814140234293
      ],
      [
        "à¦°à¦¸à¦ļ",
        -13.307713643226295
      ],
      [
        "Ġà¦ľà¦²à¦¸",
        -13.313401902402576
      ],
      [
        "à¦§à¦¸à¦¹",
        -13.31347350046502
      ],
      [
        "Ġà§Ńà§«à§¦",
        -13.31690617277707
      ],
      [
        "à¦·à¦ľà¦¨à¦ķ",
        -13.318376875706722
      ],
      [
        "à¦¦à¦¨à¦Ĺà¦°",
        -13.319400262086647
      ],
      [
        "Ġà§§à§¯à§¯à§©",
        -13.321696475123918
      ],
      [
        "Ġtake",
        -13.322405656510728
      ],
      [
        "à¦¸à¦¬à¦ĩ",
        -13.323707623279622
      ],
      [
        ")-",
        -13.326386673958996
      ],
      [
        "à¦Ĩà¦¬à¦¹",
        -13.32726080636083
      ],
      [
        "à§ĩâĢĻ,",
        -13.328669470246627
      ],
      [
        "Ġà¦Ĩà¦²à¦¬à¦¦à¦°",
        -13.329554956414693
      ],
      [
        "Ġà¦¸à¦°à¦«à¦°",
        -13.333402850039047
      ],
      [
        "Ġà¦ħà¦ªà¦¶à¦¨",
        -13.333948093076476
      ],
      [
        "Ġà§§à§§à§¬",
        -13.334086968134063
      ],
      [
        "à§İà¦¸à¦¬",
        -13.339301433308584
      ],
      [
        "Ġgreat",
        -13.341738661308742
      ],
      [
        "à¦Ĩà¦ĩà¦ĵ",
        -13.343220433285556
      ],
      [
        "ĠEnglish",
        -13.34338979246572
      ],
      [
        "Ġà¦ªà¦¥à¦ļà¦²",
        -13.344835327024906
      ],
      [
        "Ġwater",
        -13.345023207640056
      ],
      [
        "Ġà¦Ĩà¦²à¦«",
        -13.345615417594377
      ],
      [
        "ĠHow",
        -13.346718268083379
      ],
      [
        "Ġà¦ıà¦ĩà¦ļà¦¡",
        -13.346793375334443
      ],
      [
        "Ġà¦ħà¦¬à¦Ĺà¦¤",
        -13.348700805752006
      ],
      [
        "Ġà§§à§¦à§Ń",
        -13.352399584332273
      ],
      [
        "Ġà¦ļà¦¶à¦®",
        -13.354006528486575
      ],
      [
        "Ġà¦ĩà¦®à¦ª",
        -13.357291767585686
      ],
      [
        "Ġso",
        -13.358777617114086
      ],
      [
        "ĠNo",
        -13.359768530289724
      ],
      [
        "Ġà§§à§¯à§Ńà§¦",
        -13.360085827455165
      ],
      [
        "ĠâķĽ",
        -13.360927932125298
      ],
      [
        "Ġget",
        -13.36151612623324
      ],
      [
        "à¦·à¦¬à¦°à¦£",
        -13.362059534846683
      ],
      [
        "Ġà§§à§¦à§¨",
        -13.363637433364271
      ],
      [
        "à¦Ĩà¦īà¦Ł",
        -13.365231371579839
      ],
      [
        "Ġà¦ĩà¦ıà¦¸",
        -13.368690083374911
      ],
      [
        "Ġif",
        -13.370803427736796
      ],
      [
        "à§«à§¬",
        -13.371795957622432
      ],
      [
        "à¦ıà¦¨à¦Ł",
        -13.373273708487117
      ],
      [
        "Ġà§§à§¯à§Ńà§ª",
        -13.373300993312
      ],
      [
        "Ġword",
        -13.374829090473042
      ],
      [
        "Ans",
        -13.375190120786762
      ],
      [
        "Ġà§§à§¦à§¦à§¦",
        -13.376378856026083
      ],
      [
        "à¦¦à¦¨à¦ĵ",
        -13.376945259630116
      ],
      [
        "Ġout",
        -13.377787990653008
      ],
      [
        "Ġà§§à§¦à§ª",
        -13.377846850171549
      ],
      [
        "à¦Ĩà¦ĩà¦ıà¦¨",
        -13.378004345822198
      ],
      [
        "Ġà¦ĭà¦·",
        -13.378253639767834
      ],
      [
        "Ġany",
        -13.379021236146638
      ],
      [
        "à¦Ĩà¦ĩà¦¨à¦ľ",
        -13.380255424573992
      ],
      [
        "à§«à§§",
        -13.385839638826884
      ],
      [
        "Ġà¦īà§İà¦ĸ",
        -13.38663813532455
      ],
      [
        "Ġà§§à§¦à§¬",
        -13.387063650404983
      ],
      [
        "à¦ľà¦¨à¦¸à¦¹",
        -13.39165799292603
      ],
      [
        "Ġtext",
        -13.392202910792786
      ],
      [
        "Ġpassage",
        -13.395287007295488
      ],
      [
        "à§«à§ª",
        -13.39641007860711
      ],
      [
        "à¦ĩà¦īà¦ľ",
        -13.39659499347039
      ],
      [
        "à¦Ĩà¦ĩà¦Ł",
        -13.398282233090278
      ],
      [
        "Ġà§§à§¦à§®",
        -13.398316563933363
      ],
      [
        "à¦ĤâĢĶ",
        -13.399593872544838
      ],
      [
        "Ĩà¦ĩà¦ıà¦®à¦ıà¦«",
        -13.40275322679145
      ],
      [
        "à¦¬à¦²à¦¡à¦¨",
        -13.404714419991794
      ],
      [
        "à¦Ĥà¥¤",
        -13.405380130660108
      ],
      [
        "Ġà§§à§¦à§©",
        -13.405866268062745
      ],
      [
        "Ġà§§à§¯à§®à§¦",
        -13.405916981177802
      ],
      [
        "Ġà§§à§Ńà§¦",
        -13.40778030004316
      ],
      [
        "B",
        -13.40904190200824
      ],
      [
        "Ġà¦īà¦ĩà¦¥",
        -13.411612459425783
      ],
      [
        "à¦¾à¥¤*",
        -13.412894655450843
      ],
      [
        "à§¨à§¦à§§à§®",
        -13.41406780067004
      ],
      [
        "Ġà¦ıà¦¸à¦ª",
        -13.41443508867155
      ],
      [
        "à§İà¦ª",
        -13.414657852473713
      ],
      [
        "Ġà§§à§¯à§®à§®",
        -13.415373375922563
      ],
      [
        "à§İà¦ĩ",
        -13.41601983822352
      ],
      [
        "C",
        -13.416953030274481
      ],
      [
        "Ġà§¬à§«à§¦",
        -13.418651346434299
      ],
      [
        "à¦ªà¦¦à¦®",
        -13.421352771087221
      ],
      [
        "âĢĻâĢĵ",
        -13.42139229892631
      ],
      [
        "à§Ńà§¨",
        -13.422233999533557
      ],
      [
        "ĠĠĠĠĠĠĠĠ",
        -13.422483373451264
      ],
      [
        "Ġà¦ªà¦¦à¦¬",
        -13.422622570477294
      ],
      [
        "Ġà¦Ĩà¦¦à¦²",
        -13.424773392263113
      ],
      [
        "Ġà§§à§§à§«",
        -13.425029345606042
      ],
      [
        "à¦°à¦ļà¦²à¦¨",
        -13.425328133135514
      ],
      [
        "à¦ĩà¦¸à¦¹",
        -13.42587338545606
      ],
      [
        "à¦¾!âĢĻ",
        -13.428183000382894
      ],
      [
        "7",
        -13.429106003867341
      ],
      [
        "à§ĢâĢĶ",
        -13.430906398054626
      ],
      [
        "ĠÑĢÐ¶Ð¸ÑĢÐ¶",
        -13.432740174406238
      ],
      [
        "à¦¹à¦¨à¦Ĺ",
        -13.435451857647031
      ],
      [
        "à§¬à§¨",
        -13.437964464130804
      ],
      [
        "Ġ6",
        -13.439605836162311
      ],
      [
        "à¦¿...",
        -13.441141759365289
      ],
      [
        "à¦¬à¦¨à¦Ĺà¦°",
        -13.443625878441978
      ],
      [
        "à¦Ŀà¦ªà¦¥",
        -13.443750035457008
      ],
      [
        "ĠSo",
        -13.444113107119344
      ],
      [
        "à¦Ĩà¦¨à¦¨",
        -13.444992124907209
      ],
      [
        "Ġà¦®à¦°à¦¹",
        -13.44506779212462
      ],
      [
        "Ġà§¨à§¦à§©à§",
        -13.445510141416719
      ],
      [
        "à¦Ĺà¦Ńà¦¬à¦¨",
        -13.451855942824684
      ],
      [
        "Ġà§§à§¯à§ªà§Ń",
        -13.45286239053441
      ],
      [
        "à§¨à§¦à§¦à§Ń",
        -13.452863732899287
      ],
      [
        "E",
        -13.456654603721596
      ],
      [
        "Ġà¦¬à¦°à¦ķà¦¤",
        -13.457674074090782
      ],
      [
        "Ġà¦¦à¦²à¦ĵ",
        -13.45771117332174
      ],
      [
        "Ġà§§à§§à§§",
        -13.457961730729672
      ],
      [
        "Ġà¦ªà¦¦à¦¸",
        -13.459727405274418
      ],
      [
        "à¦ħà¦ľ",
        -13.460462122573304
      ],
      [
        "à¦Īà¦¶",
        -13.46073613303
      ],
      [
        "Ġà§§à§¨à§®",
        -13.463144846054632
      ],
      [
        "à¦īà¦ĩà¦ķ",
        -13.466877614883213
      ],
      [
        "à¦¸à¦¬à¦ļ",
        -13.46755599178574
      ],
      [
        "Ġà¦¸à¦ĵà¦",
        -13.468762485785717
      ],
      [
        "8",
        -13.469888574161663
      ],
      [
        "Ġà¦Ĩà¦ľà¦Ĺà¦°",
        -13.47134570820264
      ],
      [
        "Ġam",
        -13.474325655713372
      ],
      [
        "vi",
        -13.475492620280797
      ],
      [
        "Ġà¦Ĩà¦ĩà¦¨à¦ª",
        -13.484238277474812
      ],
      [
        "à§«à§Ń",
        -13.485425001091262
      ],
      [
        "à¦¾à¥¤âĢĺ",
        -13.485966382152613
      ],
      [
        "à§«à§©",
        -13.487295005214708
      ],
      [
        "Ġà¦ĺà¦¨à¦«",
        -13.487547903724847
      ],
      [
        "ĠE",
        -13.487784826401244
      ],
      [
        "Ġà¦®à¦ĵà¦ķ",
        -13.489052339397894
      ],
      [
        "ĠYou",
        -13.489624172279967
      ],
      [
        "Ġà¦¤à¦ªà¦¨",
        -13.491086549797895
      ],
      [
        "à¦¿.,",
        -13.491140531332341
      ],
      [
        "Ġà¦ıà¦¨à¦Ĩà¦°",
        -13.49116407853494
      ],
      [
        "âĢĻâĢĺ",
        -13.491204855983913
      ],
      [
        "Ġà§§à§¦à§¯",
        -13.492173099762141
      ],
      [
        ".#",
        -13.494127864717804
      ],
      [
        "alo",
        -13.495513758521046
      ],
      [
        "ÑĢÐ¶Ð¥ÑĢÐ¶",
        -13.499604523628657
      ],
      [
        "à§ĩ!âĢĻ",
        -13.499773546609958
      ],
      [
        "Ġà¦¹à¦ķà¦ķ",
        -13.502811178985036
      ],
      [
        "Ġfriend",
        -13.505988158550405
      ],
      [
        "Ġà¦¬à¦Ľà¦°à¦ĵ",
        -13.506190011811762
      ],
      [
        "Ġà¦¸à¦¹à¦¨à¦¶",
        -13.506960425688469
      ],
      [
        "Ġà¦Ńà¦Łà¦Ń",
        -13.509678202174982
      ],
      [
        "Ġà¦¶à¦¤à¦¬à¦°",
        -13.5116514211741
      ],
      [
        "Ġclass",
        -13.511839829837886
      ],
      [
        "à¦ıà¦«à¦¸",
        -13.512109388473899
      ],
      [
        "Ġà¦ĩà¦¨à¦ļ",
        -13.512155124023465
      ],
      [
        "10",
        -13.512644523112652
      ],
      [
        "ĠĠĠĠĠĠĠĠĠ",
        -13.514351528064594
      ],
      [
        "à¦¸à¦ķà¦·",
        -13.51460375112007
      ],
      [
        "à¦Ĺà¦£à¦®",
        -13.515611191329228
      ],
      [
        "à¦¥à¦ķà¦Ń",
        -13.515667761802465
      ],
      [
        "Ġà¦Ŀà¦²à¦ķ",
        -13.515714118148763
      ],
      [
        "à¦¼âĢĻà¥¤",
        -13.516587789019143
      ],
      [
        "à§ªà§¯",
        -13.518167232193317
      ],
      [
        "à¦ªà¦¨à¦¸à¦°",
        -13.518706613098574
      ],
      [
        "à§ĩà¥¤ïģ¬",
        -13.520095835905206
      ],
      [
        "Ġlive",
        -13.521274441329165
      ],
      [
        "Ġmost",
        -13.521565248396337
      ],
      [
        "à¦ıà¦ĩà¦ļà¦¸",
        -13.523877183561988
      ],
      [
        "ĠWrite",
        -13.524502643226988
      ],
      [
        "Ġà§§à§¯à§®à§¯",
        -13.525616077716329
      ],
      [
        "Ġà¦ĭà¦£à¦ĸ",
        -13.526129155052107
      ],
      [
        "Ġà§§à§¯à§®à§¨",
        -13.526544169643024
      ],
      [
        "Ġteacher",
        -13.52830327798588
      ],
      [
        "à¦°à¦¹à¦¸à¦¨",
        -13.52901363334307
      ],
      [
        "à¦Ĳà¦¤",
        -13.529958865532327
      ],
      [
        "à¦¿à¥¤âĢĺ",
        -13.531218775719037
      ],
      [
        "à¦ıà¦°à¦ĩ",
        -13.532110578679656
      ],
      [
        "Ġà¦Ĩà¦¦à¦®à¦",
        -13.532295831695226
      ],
      [
        "ĠÑĢÐ¶ÐºÑĢÐ¶",
        -13.532333843042487
      ],
      [
        "Ġ[",
        -13.533077229232404
      ],
      [
        "Ġà¦¨à¦ķà¦Ĩà¦īà¦Ł",
        -13.533839223492684
      ],
      [
        "à¦¼à¦¾âĢĶ",
        -13.534208515579973
      ],
      [
        "Ġname",
        -13.537248182622161
      ],
      [
        "Ġà§§à§©à§«",
        -13.537694450252438
      ],
      [
        "ĭ",
        -13.538206851228772
      ],
      [
        "Ġà¦ĩà¦¥",
        -13.538321244608962
      ],
      [
        "à¦Ĩà¦«",
        -13.538593712281102
      ],
      [
        "Ġà¦¸à¦ļà¦²",
        -13.539803235612789
      ],
      [
        "à¦ĩà¦Łà¦Ł",
        -13.540243443356168
      ],
      [
        "à¦ıà¦«à¦¡",
        -13.541570232124394
      ],
      [
        "Ġà§§à§¯à§®à§ª",
        -13.542563623532054
      ],
      [
        "à¦®à¦¹à¦²",
        -13.544850362227177
      ],
      [
        "Ġà§§à§§à§Ń",
        -13.545971554789475
      ],
      [
        "Ġasked",
        -13.546222058786732
      ],
      [
        "Ġà§©à§¨à§¦",
        -13.548036386999947
      ],
      [
        "Ġà§§à§§à§¨",
        -13.54889933352242
      ],
      [
        "à¦¨à¦Ĺà¦¡",
        -13.550842734183124
      ],
      [
        "ĠĠĠĠĠĠĠĠĠĠĠĠĠĠĠ",
        -13.551838907001134
      ],
      [
        "à¦«à¦«à¦°",
        -13.554272225282244
      ],
      [
        "Ġà¦Ŀà¦²à¦®à¦²",
        -13.560998261574
      ],
      [
        "Ġknow",
        -13.562985126295033
      ],
      [
        "à¦ļà¦²à¦ļ",
        -13.563360838201907
      ],
      [
        "Ġonly",
        -13.56337795181074
      ],
      [
        "Ġwork",
        -13.566121645723674
      ],
      [
        "à¦ĩà¦«à¦īà¦",
        -13.569965590367955
      ],
      [
        "à¦Ĩà¦ĩà¦ı",
        -13.570284533809428
      ],
      [
        "à¦¿à¦Ĥ)",
        -13.57216998895613
      ],
      [
        "à§ĩâĢĻâĢĶ",
        -13.572714233321825
      ],
      [
        "Ġà¦ıà¦ĩà¦ļà¦Ĩà¦ĩ",
        -13.573557986124493
      ],
      [
        "âĢĻ!",
        -13.574381643393998
      ],
      [
        "ĠĠĠĠĠĠĠĠĠĠĠĠĠĠ",
        -13.57525195530214
      ],
      [
        "à¦Ĩà¦Łà¦ľà¦¨",
        -13.57526140522715
      ],
      [
        "Ġà¦ħà¦®à¦¨",
        -13.576151038384133
      ],
      [
        "Ġà§§à§¯à§®à§«",
        -13.578874932027633
      ],
      [
        "prothom",
        -13.581299966544874
      ],
      [
        "à¦Ĺà¦¨à¦Ń",
        -13.584559622324383
      ],
      [
        "Ġl",
        -13.58612347401469
      ],
      [
        "à¦ıà¦«à¦Ĩà¦ĩ",
        -13.586136360167188
      ],
      [
        "Ġà§§à§¯à§«à§¨",
        -13.589822443688163
      ],
      [
        "à¦ĩà¦«à¦Ł",
        -13.591801019591582
      ],
      [
        "Ġà¦ıà¦¨à¦¸",
        -13.592031744152646
      ],
      [
        "Ġfirst",
        -13.592245942128283
      ],
      [
        "à¦ªà§İà¦¸",
        -13.594168551254132
      ],
      [
        "à¦¬à¦īà¦¦",
        -13.595029574700437
      ],
      [
        "Ġà§§à§¨à§¬",
        -13.596867794272605
      ],
      [
        "à¦Ĺà¦ľà¦¨à¦ķ",
        -13.598643142339295
      ],
      [
        "à§¬à§®",
        -13.59966161405406
      ],
      [
        "à¦¾âĢĮ",
        -13.600176082974535
      ],
      [
        "Ġà¦¸à¦®à¦¤à¦²",
        -13.600316741077345
      ],
      [
        "Ġwould",
        -13.601733543203471
      ],
      [
        "Ġà¦¡à¦ľà¦¨",
        -13.60367455563015
      ],
      [
        "à§¨à§¦à§¦à§¬",
        -13.604112463659703
      ],
      [
        "ĠP",
        -13.604793967051556
      ],
      [
        "Ġà¦ħà¦¦à¦®",
        -13.605908760931893
      ],
      [
        "Ġà§§à§¨à§©",
        -13.606797699464945
      ],
      [
        "â",
        -13.60806005412135
      ],
      [
        "Ġà§«à§«à§¦",
        -13.608519730983605
      ],
      [
        "Ġà§§à§§à§®",
        -13.609060844504317
      ],
      [
        "à¦§à¦®à¦ķ",
        -13.61210355565371
      ],
      [
        "ĠFill",
        -13.61455742861667
      ],
      [
        "à¦¨à¦Ĩà¦īà¦Ł",
        -13.615324937371366
      ],
      [
        "à¦ıà¦¨à¦ıà¦«",
        -13.619981367421769
      ],
      [
        "Ġà¦¶à¦¤à¦¤à¦®",
        -13.620608233228152
      ],
      [
        "à¦Ĩà¦°à¦ıà¦¸",
        -13.620826189478745
      ],
      [
        "à¦¡à¦¸à¦¹",
        -13.620970898476845
      ],
      [
        "à¦ıà¦¸à¦ıà¦²",
        -13.623566829396328
      ],
      [
        "ÃĹ",
        -13.623616524386222
      ],
      [
        "à§¬à§§",
        -13.624763924531283
      ],
      [
        "Ġà§§à§§à§ª",
        -13.626180414390145
      ],
      [
        "Ġà¦Ĩà¦¶à¦«",
        -13.627243584661556
      ],
      [
        "à¦ĩà¦ĺ",
        -13.628528773284778
      ],
      [
        "à¦£à¦ªà¦¦à¦ķ",
        -13.629465619505927
      ],
      [
        "Ġà§¨à§¨à§¦",
        -13.630512155152871
      ],
      [
        "Ġà§§à§¯à§¦",
        -13.630641993318378
      ],
      [
        "Ġà¦ķà¦¦à¦°",
        -13.63834027811249
      ],
      [
        "Ġà¦Ķà¦·à¦§",
        -13.639412993761002
      ],
      [
        "Ġà¦Ĩà¦ĩà¦ĵà¦ıà¦¸",
        -13.639685729395897
      ],
      [
        "Ġà§§à§¨à§§",
        -13.640780162960255
      ],
      [
        "Ġcould",
        -13.641610018825133
      ],
      [
        "Ġfather",
        -13.645994580016653
      ],
      [
        "âĢĮà§ģ",
        -13.646160595953098
      ],
      [
        "Ġuse",
        -13.64685122616319
      ],
      [
        "Ġà¦ĩà¦¸à¦¹",
        -13.650307229565882
      ],
      [
        "à¦¥à¦¹",
        -13.651064649529737
      ],
      [
        "Ġà¦ĸà¦¨à¦¨à¦ķ",
        -13.651549446714661
      ],
      [
        "à¦Ĺà¦«à¦²",
        -13.652095803022643
      ],
      [
        "Ġà§§à§¯à§®à§Ń",
        -13.652755921799852
      ],
      [
        "à§Į-",
        -13.65350690586929
      ],
      [
        "Ġà¦¤à¦Ľà¦¨à¦Ľ",
        -13.65454446116085
      ],
      [
        "à¦¯à¦ľà¦¨à¦ķà¦Ń",
        -13.65468534428637
      ],
      [
        "ĠWh",
        -13.6567955925781
      ],
      [
        "Ġover",
        -13.657206632798061
      ],
      [
        "ĠĠĠĠĠĠĠĠĠĠ",
        -13.657776056116493
      ],
      [
        "Ġà¦¤à¦°à¦«à¦",
        -13.658016154984452
      ],
      [
        "à¦Łà¦Ĩà¦ª",
        -13.661177405596682
      ],
      [
        "à¦¶à¦Ĺà¦¤",
        -13.662899457260703
      ],
      [
        "Ġà§§à§¨à§Ń",
        -13.663120272911426
      ],
      [
        "Ġà§§à§¯à§®à§©",
        -13.663189774671839
      ],
      [
        "0",
        -13.66412941371348
      ],
      [
        "à§Ģà¥¤âĢĻ",
        -13.664130277231429
      ],
      [
        "à§®à§¦à§¦",
        -13.664432346571651
      ],
      [
        "ÑĢÐ¶Ð¼ÑĢÐ¶",
        -13.664543482997836
      ],
      [
        "Ġà§§à§©à§¨",
        -13.66550917444556
      ],
      [
        "à¦·à¦£à¦Ń",
        -13.665839190229907
      ],
      [
        "à¦°à¦®à¦£à¦Ń",
        -13.666533514955127
      ],
      [
        "Ġà§§à§§à§¯",
        -13.667463900931024
      ],
      [
        "à¦ľà¦¨à¦Ĺà¦£",
        -13.668078929539732
      ],
      [
        "Ġà§§à§¨à§ª",
        -13.668846380116843
      ],
      [
        "à¦ıà¦¸à¦",
        -13.668982739197466
      ],
      [
        "Ġà¦īà¦®à¦°",
        -13.669739680248213
      ],
      [
        "ĠĠĠĠĠĠĠĠĠĠĠ",
        -13.67066369099415
      ],
      [
        "Ġ8",
        -13.671449672205082
      ],
      [
        "ÑĢÐ¶Ð´ÑĢÐ¶",
        -13.673551105185538
      ],
      [
        "Ġà¦Ńà¦¬à¦¨à¦Ĺ",
        -13.67358387175345
      ],
      [
        "Ġà§§à§¯à§Ńà§¯",
        -13.674090608394115
      ],
      [
        "à§¬à§¦à§¦",
        -13.676537260248978
      ],
      [
        "Ġà§§à§§à§©",
        -13.677394826255327
      ],
      [
        "Ġà¦ıà¦¸à¦¡",
        -13.6783585296365
      ],
      [
        "Ġwell",
        -13.678568372682278
      ],
      [
        "Ġà§§à§¯à§Ńà§®",
        -13.679692683552208
      ],
      [
        "Ġà¦ıà¦ĩà¦¡à¦¸",
        -13.680509656342252
      ],
      [
        "ĠDhaka",
        -13.680868503887925
      ],
      [
        "Ġà¦ĩà¦īà¦ıà¦¸à¦ı",
        -13.681546439161504
      ],
      [
        "à¦ķà¦°à¦£à¦Ł",
        -13.684985941923955
      ],
      [
        "Ġà¦Ĺà¦£à¦¬",
        -13.686960542143936
      ],
      [
        "à¦¿|",
        -13.687092544770739
      ],
      [
        "à¦¤à¦¬à¦¦à¦²",
        -13.687555107993166
      ],
      [
        "à§¨à§¦à§¦à§ª",
        -13.687932436869946
      ],
      [
        "à¦ľà¦®à¦¹à¦²",
        -13.689624748500453
      ],
      [
        "ÑĢÐ¶ÐºÑĢÐ·ÐĿÑĢÐ¶",
        -13.691327029648317
      ],
      [
        "Ġneed",
        -13.692288888152122
      ],
      [
        "yahoo",
        -13.692323627345552
      ],
      [
        "à¦Ĩà¦²à¦®",
        -13.692627902493559
      ],
      [
        "à¦¨à¦¸à¦ĩ",
        -13.693632137413806
      ],
      [
        "Ġà§§à§¨à§¨",
        -13.693774871016757
      ],
      [
        "à§§à§¯à§Ńà§§",
        -13.696084334772017
      ],
      [
        "Ġà§©à§¬à§¦",
        -13.697296508977042
      ],
      [
        "ÑĢÐ¶Ð¸ÑĢÐ¶",
        -13.697779131553247
      ],
      [
        "ÑĢÐ¶Ð¶ÑĢÐ·ÐĹÑĢÐ¶",
        -13.698164616412747
      ],
      [
        "al",
        -13.701693180550038
      ],
      [
        "à§®à§«",
        -13.703763478725628
      ],
      [
        "Ġsee",
        -13.70484909746054
      ],
      [
        "à¦°à¦Ĩà¦ª",
        -13.705191476045002
      ],
      [
        "à§¬à§¬",
        -13.707308396696359
      ],
      [
        "Ġcome",
        -13.708369943535729
      ],
      [
        "Ġbeen",
        -13.708653435947278
      ],
      [
        "Ġà§§à§«à§©",
        -13.709028153170818
      ],
      [
        "edu",
        -13.709189450846536
      ],
      [
        "Ġà§§à§©à§ª",
        -13.709547882588376
      ],
      [
        "à¦¾âĢĻâĢĶ",
        -13.709968462490238
      ],
      [
        "à§©à§¦à§¦",
        -13.713693960023651
      ],
      [
        "Ġà¦Ĩà¦ķà¦®à¦²",
        -13.713860831633122
      ],
      [
        "Ġ...",
        -13.71424413136464
      ],
      [
        "à§¨à§¦à§¦à§§",
        -13.71549457339822
      ],
      [
        "à¦ĩà¦ľà¦¡",
        -13.715922079360313
      ],
      [
        "à¦ıà¦²à¦¸",
        -13.716665582585305
      ],
      [
        "à§¯à§¬",
        -13.717623174239915
      ],
      [
        "Ġà¦¶à¦°à¦¬à¦¤",
        -13.71897344135742
      ],
      [
        "Ġbecause",
        -13.719289928465207
      ],
      [
        "à¦£à¦¸à¦¹",
        -13.719617296752446
      ],
      [
        "Ġ7",
        -13.719985112429004
      ],
      [
        "à¦īà¦Ń",
        -13.720138058452559
      ],
      [
        "Ġà¦¯à¦®à¦ľ",
        -13.721404095525282
      ],
      [
        "à¦ľà¦Ĺà¦¤",
        -13.721713223021244
      ],
      [
        "Ġà§¨à§ªà§¦",
        -13.722593499353573
      ],
      [
        "9",
        -13.72348453449531
      ],
      [
        "Ġimportant",
        -13.728850979599308
      ],
      [
        "http",
        -13.729517665308144
      ],
      [
        "org",
        -13.735886433893693
      ],
      [
        ".âĢĻ",
        -13.736526552159559
      ],
      [
        "Ġf",
        -13.738901916164021
      ],
      [
        "à§¬à§©",
        -13.741716150221738
      ],
      [
        "à¦¿?âĢĻ",
        -13.744030447378691
      ],
      [
        "Ġhouse",
        -13.744460821122694
      ],
      [
        "Ġà¦¦à¦°à¦ªà¦¤à¦¨",
        -13.744502284798493
      ],
      [
        "Ġà¦Ĺà¦£à¦Ĺ",
        -13.744557314124044
      ],
      [
        "à¦īà¦ĸ",
        -13.74581730529075
      ],
      [
        "Ġà§¨à§®à§¦",
        -13.74682491144651
      ],
      [
        "Ġà¦īà§İ",
        -13.747870876242098
      ],
      [
        "à§«à§¯",
        -13.748197281870198
      ],
      [
        "Ġà¦Ĩà¦ĩà¦ķà¦¨",
        -13.74900803275994
      ],
      [
        "ÑĢÐ¶Ð´ÑĢÐ·ÐĹ",
        -13.749511441103447
      ],
      [
        "à¦Ĩà¦ĩà¦ĩà¦ī",
        -13.750596232587116
      ],
      [
        "ÑĢÐ¶Ð¯ÑĢÐ¶",
        -13.752856040579632
      ],
      [
        "Ġà§§à§©à§¬",
        -13.75562507333413
      ],
      [
        "ĠĠĠĠĠĠĠĠĠĠĠĠ",
        -13.756083439745357
      ],
      [
        "Ġà§§à§«à§ª",
        -13.756849251034268
      ],
      [
        "à¦ļà¦ªà¦¦",
        -13.756939981899594
      ],
      [
        "Ġà§¨à§©à§¦",
        -13.757045229162777
      ],
      [
        ");",
        -13.760322452642033
      ],
      [
        "Ġà§§à§Ńà§«",
        -13.761605720859656
      ],
      [
        "Ġà¦ıà¦®à¦ı",
        -13.761962333077783
      ],
      [
        "Ġdifferent",
        -13.76302657011439
      ],
      [
        "à¦ıà¦ķà¦¸à¦®",
        -13.764282982858164
      ],
      [
        "à¦¼à¥¤âĢĺ",
        -13.76520642407094
      ],
      [
        "à¦¶à¦¨à¦¸à¦¹",
        -13.765769486580332
      ],
      [
        "Ġtwo",
        -13.766749945394118
      ],
      [
        "Ġà¦ķà¦¦à¦®",
        -13.76989691841749
      ],
      [
        "Ġà§§à§ªà§«",
        -13.770280804943493
      ],
      [
        "à¦°à¦ĭà¦£",
        -13.773164110748157
      ],
      [
        "à§µ",
        -13.77427161849381
      ],
      [
        "Ġà¦Ĩà¦īà¦Łà¦¸",
        -13.77428962305478
      ],
      [
        "Ġà¦ħà¦²à¦¸",
        -13.775809015327102
      ],
      [
        "ĠWhen",
        -13.778057398448052
      ],
      [
        "à§ªà§¦à§¦",
        -13.781240768477836
      ],
      [
        "Ġà¦§à¦¬à¦²à¦",
        -13.781341324260236
      ],
      [
        "O",
        -13.782519497755263
      ],
      [
        "Ġwhat",
        -13.784388705864522
      ],
      [
        "Ġà¦ıà¦¨à¦Ń",
        -13.785182398719893
      ],
      [
        "Ġà§§à§¯à§®à§§",
        -13.785535502399483
      ],
      [
        "à¦īà¦ĩà¦¨",
        -13.786208072611451
      ],
      [
        "Ġà¦Ĩà¦ĩà¦ļ",
        -13.787072716957466
      ],
      [
        "Ġà¦ĩà¦ķà¦°",
        -13.788772747113033
      ],
      [
        "ĠâĢĺâĢĺ",
        -13.793738744172401
      ],
      [
        "à§¬à§ª",
        -13.79454347294114
      ],
      [
        "Ġà§§à§©à§®",
        -13.794919407398895
      ],
      [
        "à¦ıà¦®à¦ıà¦ĩà¦ļ",
        -13.798411277897426
      ],
      [
        "à§¬à§Ń",
        -13.79856147962464
      ],
      [
        "Ġà§§à§ªà§¨",
        -13.79883605386087
      ],
      [
        "Ġà§§à§¬à§¨",
        -13.799170143717078
      ],
      [
        "à¦¿!âĢĻ",
        -13.79933783611234
      ],
      [
        "à¦¾/",
        -13.799395250344123
      ],
      [
        "Ġà¦ĺà¦°à¦Ł",
        -13.799441280501314
      ],
      [
        "Ġà§§à§«à§¨",
        -13.799784499970219
      ],
      [
        "Ġplace",
        -13.800948482447772
      ],
      [
        "Ġnow",
        -13.802929167294188
      ],
      [
        "à¦²à¦¡à¦Łà¦ķà¦®",
        -13.804090123348095
      ],
      [
        "Ġafter",
        -13.804867005639395
      ],
      [
        "à¦ľà¦¨à¦Ĺà¦°",
        -13.805168025712304
      ],
      [
        "à¦¸à¦¬à¦¹",
        -13.805243655834168
      ],
      [
        "ÑĢÐ¶Ð¥",
        -13.80621303814338
      ],
      [
        "à¦¼)à¥¤",
        -13.807286909584382
      ],
      [
        "Ġhome",
        -13.808706424789484
      ],
      [
        "Ġwhen",
        -13.808745833363332
      ],
      [
        "à¦ıà¦«à¦ĩà¦ī",
        -13.81073185011149
      ],
      [
        "each",
        -13.811089567919105
      ],
      [
        "ĠHis",
        -13.812441077773933
      ],
      [
        "Ġà¦ľà¦Ĺà¦¦",
        -13.813079042843011
      ],
      [
        "Ġà¦¨à¦Īà¦®",
        -13.814353336017566
      ],
      [
        "à§¦à§Ń",
        -13.817484547629817
      ],
      [
        "ÑĢÐ¶Ð¾ÑĢÐ¶",
        -13.817938564656401
      ],
      [
        "ĠÑĢÐ¶Ð´ÑĢÐ¶",
        -13.8212421523987
      ],
      [
        "Ġinto",
        -13.821864589542166
      ],
      [
        "à§§à§¯à§¬à§¨",
        -13.822967828926108
      ],
      [
        "Ġà¦Ĩà¦ļà¦®",
        -13.823265694346544
      ],
      [
        "Ġeat",
        -13.825832742035518
      ],
      [
        "Ġà¦ħà¦Ĺà¦£",
        -13.827658708028938
      ],
      [
        "Ġcame",
        -13.828423079053803
      ],
      [
        "p",
        -13.82843651131902
      ],
      [
        "à¦ħà¦Ł",
        -13.82878750798159
      ],
      [
        "Ġà§§à§¯à§¬à§¯",
        -13.830622639184686
      ],
      [
        "Ġà¦Ĳ",
        -13.8320107030771
      ],
      [
        "Ġà¦¬à¦ĸà¦¤",
        -13.833450185070607
      ],
      [
        "th",
        -13.833625303261531
      ],
      [
        "Ġà¦ıà¦¸à¦ıà¦®à¦ĩ",
        -13.83409498443572
      ],
      [
        "à¦Ĩà¦°à¦Ĩà¦ĩ",
        -13.83778926888386
      ],
      [
        "à¦¾âĢĿ",
        -13.838175036239715
      ],
      [
        "Ġà§§à§¬à§«",
        -13.838212200484575
      ],
      [
        "ĠĠĠĠĠĠĠĠĠĠĠĠĠ",
        -13.840865192164834
      ],
      [
        "Ġà¦¬à¦ĩà¦Ĺ",
        -13.841690871869078
      ],
      [
        "ĠÑĢÐ¶Ð¾ÑĢÐ¶",
        -13.841814259172523
      ],
      [
        "ĠM",
        -13.842661606352666
      ],
      [
        "Ġvillage",
        -13.843070453695452
      ],
      [
        "Ġletter",
        -13.843079674342444
      ],
      [
        "Ġà§§à§©à§§",
        -13.844213437968227
      ],
      [
        "vii",
        -13.84488314624716
      ],
      [
        "Ġwent",
        -13.845815753942958
      ],
      [
        "Ġà¦ħà¦Ĺà¦£à¦¤",
        -13.847058006668533
      ],
      [
        "Ġà¦ħà¦¸à§İ",
        -13.84744645878461
      ],
      [
        "à¦Ĩà¦°à¦ıà¦®à¦ĵ",
        -13.848896944916094
      ],
      [
        "à¦§à¦ķà¦°à¦£",
        -13.849567187443482
      ],
      [
        "Ġà§¨à§Ńà§¦",
        -13.85127965424701
      ],
      [
        "Ġits",
        -13.852026764942824
      ],
      [
        "à§Ńà§¬",
        -13.852095293632281
      ],
      [
        "à¦ĩà¦īà¦¸",
        -13.855189828407664
      ],
      [
        "Ġmay",
        -13.85530657385911
      ],
      [
        "able",
        -13.85544166328865
      ],
      [
        "Ġà¦¨à¦¬à¦Ĺ",
        -13.855979794316047
      ],
      [
        "à§Ńà§®",
        -13.856519734264516
      ],
      [
        "Ġà§§à§¨à§¯",
        -13.856727900307753
      ],
      [
        "Ġà§§à§©à§©",
        -13.858141194224352
      ],
      [
        "|",
        -13.858899332228376
      ],
      [
        "à¦¦à¦²à¦Ł",
        -13.859297760763763
      ],
      [
        "Ġà§§à§«à§§",
        -13.859642062649549
      ],
      [
        "à¦¥à¦ĵ",
        -13.86220317841852
      ],
      [
        "Ġà¦Ĩà¦ł",
        -13.862754459624423
      ],
      [
        "Ġà§§à§«à§«",
        -13.862938818510955
      ],
      [
        "Ġà¦īà§İà¦¸à¦¬à¦®",
        -13.863098526975278
      ],
      [
        "ı",
        -13.86483358677901
      ],
      [
        "}",
        -13.86492163372628
      ],
      [
        "ĠOn",
        -13.866027569146715
      ],
      [
        "à§¨à§¦à§¦à§«",
        -13.867957261470938
      ],
      [
        "Ġà¦°à¦¦à¦¬à¦¦à¦²",
        -13.86909167525074
      ],
      [
        "gov",
        -13.869311079792631
      ],
      [
        "à§¯à§¦à§¦",
        -13.870416354577166
      ],
      [
        "Ġbecome",
        -13.871785572392348
      ],
      [
        "Ġà§§à§¯à§ªà§®",
        -13.87330621168152
      ],
      [
        "Ġà¦¶à¦¹à¦°à¦Ĺ",
        -13.874769807167887
      ],
      [
        "Ġhealth",
        -13.875913888639058
      ],
      [
        "à§ĢâĢĻà¥¤",
        -13.877272236431386
      ],
      [
        "Ġlanguage",
        -13.880074865713478
      ],
      [
        "Ġperson",
        -13.882617199416423
      ],
      [
        "à¦ħà¦¶",
        -13.883343120351581
      ],
      [
        "ĠSet",
        -13.885258144386182
      ],
      [
        "Ġbox",
        -13.887160563004823
      ],
      [
        "Ġà§§à§ªà§¬",
        -13.8874033678836
      ],
      [
        "Ġà¦ħà¦®à¦²",
        -13.88937761681246
      ],
      [
        "on",
        -13.891327607904715
      ],
      [
        "Ġà§§à§ªà§®",
        -13.893210128262535
      ],
      [
        "à§Ńà§Ń",
        -13.89328918427921
      ],
      [
        "Ġà¦ĸà¦°à¦ļà¦ĵ",
        -13.893301759951841
      ],
      [
        "à¦¾âĢĭ",
        -13.894318002752495
      ],
      [
        "Ġmeans",
        -13.894838103776124
      ],
      [
        "Ġp",
        -13.896279065746471
      ],
      [
        "Ġmade",
        -13.899851958945705
      ],
      [
        "Ġà¦ıà¦¸à¦ıà¦®",
        -13.901234546089556
      ],
      [
        "à¦¼âĢĵ",
        -13.902598046217644
      ],
      [
        "à§¨à§¦à§¦à§¦",
        -13.902802206436625
      ],
      [
        "Ġà§§à§©à§Ń",
        -13.903637327041261
      ],
      [
        "Ġmust",
        -13.904004093892404
      ],
      [
        "Ġà§§à§©à§¯",
        -13.90417559962637
      ],
      [
        "à¦ıà¦¨à¦ıà¦¸",
        -13.904282784308778
      ],
      [
        "Ġà¦ľà¦¨à¦®à¦¨",
        -13.90452711892475
      ],
      [
        "ac",
        -13.905205839690876
      ],
      [
        "Ġà¦ĩà¦®à¦",
        -13.907516413718206
      ],
      [
        "à¦ıà¦«à¦ª",
        -13.90926772815143
      ],
      [
        "Ġà§¨à§§à§¦",
        -13.910481722235382
      ],
      [
        "Ġà§§à§¯à§Ńà§Ń",
        -13.91140549498653
      ],
      [
        "Ġ9",
        -13.912390319638458
      ],
      [
        "Ġà§§à§¯à§«à§¦",
        -13.912725228199209
      ],
      [
        "P",
        -13.91329168112992
      ],
      [
        "à§®à§©",
        -13.914476230876508
      ],
      [
        "to",
        -13.914598839941508
      ],
      [
        "Ġ0",
        -13.91553207465055
      ],
      [
        "Ġhow",
        -13.917098045398177
      ],
      [
        "Ġà¦¹à¦ĩà¦¬",
        -13.917271570182612
      ],
      [
        "Ġà¦ıà¦«à¦ı",
        -13.918439704180908
      ],
      [
        "Ġà§¨à§¬à§¦",
        -13.9190852430686
      ],
      [
        "ģĦ",
        -13.919959582155787
      ],
      [
        "Ġlong",
        -13.919992634271782
      ],
      [
        "Ġà¦§à¦ķà¦²",
        -13.92008274669146
      ],
      [
        "Ġold",
        -13.921162685753908
      ],
      [
        "à¦ĩà¦īà¦¤",
        -13.921424296958028
      ],
      [
        "à¦ħà¦¬à¦¸",
        -13.922726837219244
      ],
      [
        "Ġfamily",
        -13.924330613457691
      ],
      [
        "ĠWho",
        -13.924514816123626
      ],
      [
        "Ġà¦ķà¦ĩà¦°",
        -13.924819028449331
      ],
      [
        "Ġbest",
        -13.925793618688123
      ],
      [
        "Ġà¦ħà¦¥à¦°",
        -13.926557825427576
      ],
      [
        "Ġfriends",
        -13.928842001663842
      ],
      [
        "à¦Ĩà¦°à¦ı",
        -13.929755337032567
      ],
      [
        "Ġfive",
        -13.931647627227944
      ],
      [
        "Ġà§§à§ªà§Ń",
        -13.93240654290247
      ],
      [
        "Ġmuch",
        -13.934590444134809
      ],
      [
        "Ġà¦¸à¦¹à¦®à¦°",
        -13.93564016173415
      ],
      [
        "à¦¬à¦¦à¦®",
        -13.935928670656544
      ],
      [
        "Ġblanks",
        -13.936068396716717
      ],
      [
        "Ġtable",
        -13.936705798277465
      ],
      [
        "à¦ķà¦ĭà¦£",
        -13.937095331326846
      ],
      [
        "à¦ĩà¦¸à¦Ĺ",
        -13.938374451399934
      ],
      [
        "Ġà§§à§¬à§§",
        -13.93926313704035
      ],
      [
        "à¦¿âĢĻâĢĶ",
        -13.939583473688277
      ],
      [
        "Ĩà¦°à¦ıà¦«à¦ıà¦²",
        -13.939709715837214
      ],
      [
        "Ġun",
        -13.939748294122275
      ],
      [
        "Ġà§§à§¯à§Ńà§¬",
        -13.94271130585868
      ],
      [
        ",âĢĺ",
        -13.943466168195599
      ],
      [
        "Ġà§§à§ªà§§",
        -13.943941763447336
      ],
      [
        "Ġà¦ħà¦ªà¦°à¦ľà¦¨",
        -13.946088188010606
      ],
      [
        "à§®à§¬",
        -13.946339871688018
      ],
      [
        "Ġsuitable",
        -13.946451283536156
      ],
      [
        "Ġà¦¶à¦¬à¦¨à¦®",
        -13.94860289634072
      ],
      [
        "Ġà¦ĩà¦īà¦ıà¦¨à¦¡",
        -13.949727918754729
      ],
      [
        "à¦ıà¦«à¦ı",
        -13.950569638258612
      ],
      [
        "Ġgiven",
        -13.95093963367064
      ],
      [
        "à¦ĩà¦īà¦ıà¦¸",
        -13.951237499437008
      ],
      [
        "S",
        -13.95340138132087
      ],
      [
        "Ġà¦ĭà¦£à¦Ĺ",
        -13.953627695952559
      ],
      [
        "à§¬à§¯",
        -13.956178380174283
      ],
      [
        "Ġhelp",
        -13.958390470543044
      ],
      [
        "Ġyears",
        -13.958809270214509
      ],
      [
        "à¦¼à¦¿âĢĻ",
        -13.96036472374113
      ],
      [
        "Ġstudent",
        -13.964471786882907
      ],
      [
        "Ġà¦Ĩà¦§à¦ĺ",
        -13.964772688773863
      ],
      [
        "Ġà¦¦à¦°à¦ĸ",
        -13.965276134688956
      ],
      [
        "ies",
        -13.966950761519662
      ],
      [
        "à¦ĸà¦ķà¦¦",
        -13.967432217550849
      ],
      [
        "à§Ńà§ª",
        -13.967698228623025
      ],
      [
        "à¦¦à¦¶à¦®",
        -13.96836850263691
      ],
      [
        "à¦ıà¦®à¦ıà¦²",
        -13.97062763669307
      ],
      [
        "Ġà§¨à§¨à§«",
        -13.971936606086924
      ],
      [
        "Ġà§§à§ªà§¯",
        -13.9725793650098
      ],
      [
        "Ġà¦¸à¦°à¦Ĺà¦°à¦®",
        -13.973156079823326
      ],
      [
        "Ġform",
        -13.974083063634119
      ],
      [
        "info",
        -13.974928583373977
      ],
      [
        "Ġà¦Ĺà¦ĵà¦¹à¦°",
        -13.97693260334289
      ],
      [
        "à¦¥à¦ªà¦¥",
        -13.978266729314651
      ],
      [
        "Ġtell",
        -13.978289205121923
      ],
      [
        "à§®à§®",
        -13.978426407934297
      ],
      [
        "Ġway",
        -13.979309261701335
      ],
      [
        "à§¯à§¨",
        -13.980800823839004
      ],
      [
        "ĠAnswer",
        -13.981744000158084
      ],
      [
        "à¦¼?âĢĻ",
        -13.98198161570172
      ],
      [
        "Ġà§§à§¯à§«",
        -13.983218021249725
      ],
      [
        "ĠÑĢÐ¶ÐĸÑĢÐ¶",
        -13.984173850276283
      ],
      [
        "ÑĢÐ·ÐĿÑĢÐ¶Ð¿",
        -13.984451184231906
      ],
      [
        "à¦ĩà¦¨à¦ĺ",
        -13.984533743079815
      ],
      [
        "à§¯à§¯",
        -13.986257708597606
      ],
      [
        "Ġà¦ľà¦Łà¦²",
        -13.986414082130953
      ],
      [
        "ĠAt",
        -13.986459971167744
      ],
      [
        "gl",
        -13.988100857543055
      ],
      [
        "à¦°à¦®à¦£à¦ķ",
        -13.988316272323871
      ],
      [
        "Ġà¦¹à¦ĩà¦¤",
        -13.98848127265861
      ],
      [
        "Ġreplied",
        -13.989108070516062
      ],
      [
        "Ġà¦īà¦²à¦«",
        -13.989879351536777
      ],
      [
        "st",
        -13.99085888655005
      ],
      [
        "ÑĢÐ¶Ð´",
        -13.99108642286035
      ],
      [
        "à§Ńà§©",
        -13.99112114382627
      ],
      [
        ">",
        -13.992263410152479
      ],
      [
        "Ġà¦ħà¦Łà¦²",
        -13.99504165044944
      ],
      [
        "à¦ĺà¦£",
        -13.995196468964215
      ],
      [
        "à¦Ĩà¦ĸ",
        -13.99520165184532
      ],
      [
        "à¦¯à¦Łà¦¨à¦ķ",
        -13.995295253981663
      ],
      [
        "Ġnecessary",
        -13.995365942757239
      ],
      [
        "Ġà¦®à¦ķà¦¸",
        -13.995585681912239
      ],
      [
        "Ġà§®à§«à§¦",
        -13.996119001612556
      ],
      [
        "à¦ıà¦¸à¦ıà¦¸à¦¸",
        -13.99831941192408
      ],
      [
        "Ġwithout",
        -13.998529588725773
      ],
      [
        "Ġkeep",
        -14.003223584545255
      ],
      [
        "Ġà¦Ĩà¦īà¦¶",
        -14.006728416132898
      ],
      [
        "à¦Ĩà¦°à¦ľ",
        -14.00910244349861
      ],
      [
        "ïģ®",
        -14.009561391204537
      ],
      [
        "Ġà§§à§ªà§©",
        -14.009999239818079
      ],
      [
        "à¦ľà¦¨à¦®à¦¤",
        -14.010611903537793
      ],
      [
        "à¦ĵà¦¥",
        -14.011235958074616
      ],
      [
        "Ġà¦®à¦¦à¦¨",
        -14.01262923784629
      ],
      [
        "à¦ıà¦®à¦Ĩà¦ĩ",
        -14.01323746135445
      ],
      [
        "ĠTo",
        -14.016019721679765
      ],
      [
        "à§®à§ª",
        -14.016523448835382
      ],
      [
        "à¦Łà¦¬à¦²à¦ª",
        -14.017090768649297
      ],
      [
        "à§¨à§¦à§¦à§©",
        -14.017480761567283
      ],
      [
        "Ġwrite",
        -14.017560883922886
      ],
      [
        "Ġà¦ıà¦®à¦Ĩà¦°",
        -14.018801910106122
      ],
      [
        "à¦ĩà¦¨à¦ļ",
        -14.019175181501053
      ],
      [
        "Ġshort",
        -14.019183462802191
      ],
      [
        "ix",
        -14.019611960444305
      ],
      [
        "à¦¡à¦¸à¦¨",
        -14.021199158577497
      ],
      [
        "à§®à§§",
        -14.024300495705564
      ],
      [
        "à§¯à§«",
        -14.024842529939464
      ],
      [
        "à¦ªà¦¨à¦ļ",
        -14.025707491934813
      ],
      [
        "à¦¼âĢĻ,",
        -14.025803801902793
      ],
      [
        "Ġà§§à§¯à§¬à§¦",
        -14.025945399575589
      ],
      [
        "à¦ıà¦¸à¦Ĩà¦°",
        -14.026082722606322
      ],
      [
        "an",
        -14.02660934535318
      ],
      [
        "Ġtook",
        -14.027208392280434
      ],
      [
        "Ġh",
        -14.027999482547397
      ],
      [
        "à¦ĩà¦Ĩà¦°à¦¸",
        -14.029727971512092
      ],
      [
        "Ġà§§à§«à§¬",
        -14.03025940294055
      ],
      [
        "Ġtold",
        -14.03042974562965
      ],
      [
        "Ġbooks",
        -14.032008628207823
      ],
      [
        "Ġmoney",
        -14.035298467784198
      ],
      [
        "à§¯à§ª",
        -14.035822756829273
      ],
      [
        "Ġà¦®à¦ľà¦²",
        -14.036147711109155
      ],
      [
        "Ġà¦®à¦¹à§İ",
        -14.03628427673642
      ],
      [
        "ÑĢÐ¶Ð¥ÑĢÐ·ÐĿÑĢÐ¶",
        -14.038016802580819
      ],
      [
        "à¦¼à¥¤*",
        -14.038388889570147
      ],
      [
        "Ġà§§à§¯à§¬à§¬",
        -14.038642308546663
      ],
      [
        "Ġà¦®à¦ľà¦¹",
        -14.04000137409008
      ],
      [
        "Ġà¦ļà¦ķà¦ļà¦ķ",
        -14.04120623546484
      ],
      [
        "Ġà§§à§«à§®",
        -14.041960387564941
      ],
      [
        "k",
        -14.042984499100449
      ],
      [
        "Ġà§§à§«à§Ń",
        -14.04356144524307
      ],
      [
        "Read",
        -14.04459835568912
      ],
      [
        "à¦ľà¦¨à¦ĵ",
        -14.04489850982456
      ],
      [
        "Ġbook",
        -14.045044204361393
      ],
      [
        "us",
        -14.045250798399595
      ],
      [
        "Ġgoing",
        -14.04680940420424
      ],
      [
        "à¦Ĳà¦ķ",
        -14.051396845129037
      ],
      [
        "Ġà§§à§«à§¯",
        -14.052251964696152
      ],
      [
        "à¦£à¦¬à¦¨",
        -14.052657136942585
      ],
      [
        "Ġà¦ıà¦ķà¦ĺ",
        -14.053059636225603
      ],
      [
        "Ġeducation",
        -14.05313133988379
      ],
      [
        "He",
        -14.053791952358681
      ],
      [
        "à¦Ĩà¦ĩà¦Ĩà¦ĩ",
        -14.055401807427998
      ],
      [
        "Ġmorning",
        -14.056712243746421
      ],
      [
        "Ġà¦Ĩà¦ĩà¦ıà¦«",
        -14.057246412732331
      ],
      [
        "à¦ĩà¦¨à¦Ĩà¦ª",
        -14.057844078945955
      ],
      [
        "Ġà¦¹à¦ķà¦¸à¦¹",
        -14.058182074830128
      ],
      [
        "Ġà§§à§¬à§Ń",
        -14.058375111966647
      ],
      [
        "à¦Ĩà¦¦à¦°",
        -14.058775767766758
      ],
      [
        "ĠMan",
        -14.059366760132452
      ],
      [
        "Ġà§§à§¬à§¬",
        -14.060585803912936
      ],
      [
        "ĠThi",
        -14.062286513357616
      ],
      [
        "Ġà¦īà¦ĩà¦²à¦¸à¦¨",
        -14.063594263327413
      ],
      [
        "o",
        -14.06381110336772
      ],
      [
        "à¦Ĩà¦°à¦¡",
        -14.063871971752391
      ],
      [
        "à¦ĩà¦īà¦ıà¦¨",
        -14.06433823104312
      ],
      [
        "Ġà§¯à§¯à§¦",
        -14.066317496644317
      ],
      [
        "Ġstory",
        -14.06675450220732
      ],
      [
        "Ġthings",
        -14.067985343496122
      ],
      [
        "ÑĢÐ¶Ð¾",
        -14.068093999701205
      ],
      [
        "à§¨à§¦à§§à§¯",
        -14.068169992486338
      ],
      [
        "Ġboy",
        -14.070115002619977
      ],
      [
        "Ġà¦ħà¦ķà¦ªà¦Ł",
        -14.071456621901456
      ],
      [
        "ĠAs",
        -14.071911547533293
      ],
      [
        "Ġà¦īà¦ªà¦¶à¦¹à¦°",
        -14.072486339548473
      ],
      [
        "à¦¿âĢĮ",
        -14.073192731979798
      ],
      [
        "à¦īà¦ªà¦¸",
        -14.073321436970142
      ],
      [
        "Ġhappy",
        -14.073532321778353
      ],
      [
        "12",
        -14.074165783406485
      ],
      [
        "à¦ıà¦ı",
        -14.075348502579956
      ],
      [
        "Ġà¦ļà¦®à¦ķà¦ª",
        -14.07725064743092
      ],
      [
        "à¦ľà¦ĺà¦°",
        -14.077367032637397
      ],
      [
        "facebook",
        -14.078609348249568
      ],
      [
        "Ġà¦ħà¦¸à¦¹à¦¨",
        -14.07901154630624
      ],
      [
        "ÑĢÐ·ÐĿÑĢÐ¶Ð¿ÑĢÐ¶",
        -14.079763918097457
      ],
      [
        "Ġà¦ħà¦¬à¦¨à¦®à¦¨",
        -14.080872187791698
      ],
      [
        "à§§à§¯à§¯à§¬",
        -14.081139155375437
      ],
      [
        "à¦ªà¦¸à¦¹",
        -14.082501515693744
      ],
      [
        "Ĩà¦°à¦ıà¦¸à¦ıà¦¸",
        -14.083071176324523
      ],
      [
        "à¦ľà¦¨à¦ķà¦Ń",
        -14.084671914044254
      ],
      [
        "ĠÃĹ",
        -14.0849896645109
      ],
      [
        "Ġà§ªà§¨à§¦",
        -14.088401524655422
      ],
      [
        "Ġà¦ıà¦ıà¦¸",
        -14.090083494832903
      ],
      [
        "à¦¹à¦¨à¦ª",
        -14.090842865176523
      ],
      [
        "Ġà¦Ĺà¦£à¦ķà¦¬à¦°",
        -14.091170856772337
      ],
      [
        ")âĢĶ",
        -14.093911428654199
      ],
      [
        "à§®à§Ń",
        -14.095794464086584
      ],
      [
        "à§®à§¨",
        -14.097744350944032
      ],
      [
        "...à¥¤âĢĻ",
        -14.099606265266628
      ],
      [
        "à¦¡à¦²à¦¸",
        -14.100692089310744
      ],
      [
        "Ġhere",
        -14.102838884664894
      ],
      [
        "Ġà¦¹à¦ĩà¦Ľ",
        -14.103805833454523
      ],
      [
        "à¦¬à¦¨à¦¨à¦Ĺà¦°",
        -14.1041094121708
      ],
      [
        "à§ĩà¥¤âĢĻâĢĺ",
        -14.106019150553504
      ],
      [
        "Ġalways",
        -14.106219099177697
      ],
      [
        "ĠMr",
        -14.107284821118826
      ],
      [
        "Ġà¦ıà¦¨à¦ıà¦¸",
        -14.108413183040788
      ],
      [
        "Ġcalled",
        -14.109735376604988
      ],
      [
        "Ġwhere",
        -14.109748914380605
      ],
      [
        "Ġused",
        -14.109791299865519
      ],
      [
        "H",
        -14.109836362981165
      ],
      [
        "à¦¯à¦°à¦ķà¦®",
        -14.110535782953628
      ],
      [
        "à¦¼à¦¾)à¥¤",
        -14.112359979627321
      ],
      [
        "Ġbefore",
        -14.11323441453697
      ],
      [
        "Ġchildren",
        -14.113238276567404
      ],
      [
        "à¦ĩà¦īà¦ķ",
        -14.113370637693503
      ],
      [
        "ÑĢÐ¶ÐĸÑĢÐ¶Ð¾ÑĢÐ¶",
        -14.11357788797314
      ],
      [
        "ĠÑĢÐ¶ÐŁ",
        -14.114234737905146
      ],
      [
        "ĠÑĢÐ¶Ð£",
        -14.114593192382904
      ],
      [
        "Ġà¦ļà¦°à¦«",
        -14.11475949467605
      ],
      [
        "Ġlast",
        -14.115019564582736
      ],
      [
        "Ġlook",
        -14.115044383902731
      ],
      [
        "à¦®à¦«à¦²à¦ķ",
        -14.116476162093734
      ],
      [
        "Ġright",
        -14.11681601339941
      ],
      [
        "à¦¬à¦¤à¦ĩ",
        -14.11683363561952
      ],
      [
        "à§®à§¯",
        -14.118640475565009
      ],
      [
        "ĠD",
        -14.118712100280426
      ],
      [
        "Ġà§¯à§¯à§¯",
        -14.118841615006982
      ],
      [
        "Ġà§§à§Ńà§§",
        -14.119915029006517
      ],
      [
        "Ġà§§à§Ńà§¬",
        -14.120442956408368
      ],
      [
        "Ġà§©à§¦à§¨",
        -14.121763514447336
      ],
      [
        "Ġà¦«à¦ľà¦°",
        -14.123724196947762
      ],
      [
        "à§¯à§¯à§¦",
        -14.124435710167333
      ],
      [
        "à¦§à¦¬à¦ª",
        -14.125462161019051
      ],
      [
        "Ġà§¨à§¦à§«",
        -14.125691189462522
      ],
      [
        "Ġà¦«à¦¸à¦ķ",
        -14.12599194521384
      ],
      [
        "Ġà¦ıà¦«à¦ıà¦®",
        -14.12662636971005
      ],
      [
        "ĠNow",
        -14.129894896320941
      ],
      [
        "à¦ļà¦ķà¦Ń",
        -14.130522740386212
      ],
      [
        "ion",
        -14.131378734442226
      ],
      [
        "Ġthree",
        -14.132807685014592
      ],
      [
        "Ġà¦¶à¦°à§İ",
        -14.133056465191999
      ],
      [
        "à§¯à§Ń",
        -14.134794137380997
      ],
      [
        "Ġà¦Ĩà¦īà¦Łà¦²",
        -14.134885530991006
      ],
      [
        "Ġà¦Ĩà¦ĩà¦ĵ",
        -14.135469636857017
      ],
      [
        "à¦ıà¦®à¦ıà¦®",
        -14.13581342182383
      ],
      [
        "Ġà¦Ĺà¦«à¦°à¦Ĺ",
        -14.137133890981936
      ],
      [
        "à¦¹à¦ķà¦ķ",
        -14.138949199689353
      ],
      [
        "Ġproblem",
        -14.140021418372353
      ],
      [
        "Ġfew",
        -14.140021508285422
      ],
      [
        "ĠÑĢÐ¶Ð¶ÑĢÐ¶",
        -14.140238208495749
      ],
      [
        "viii",
        -14.141210226873756
      ],
      [
        "Ġà§§à§®à§¯",
        -14.142485749939981
      ],
      [
        "à¦¿âĢĿ",
        -14.143287379697114
      ],
      [
        "ation",
        -14.14382918709401
      ],
      [
        "à§¯à§©",
        -14.144260689207252
      ],
      [
        "ĠOne",
        -14.145594495932912
      ],
      [
        "Ġà¦Ĩà¦ĩà¦ıà¦²à¦ĵ",
        -14.146091940006608
      ],
      [
        "ĠSpeech",
        -14.14913106909426
      ],
      [
        "ĠPart",
        -14.14916059318844
      ],
      [
        "à¦¾à¥¤ïģ¬",
        -14.149189790396004
      ],
      [
        "à¦¼à§ĩ!",
        -14.15095746406893
      ],
      [
        "Ġsociety",
        -14.150957481407946
      ],
      [
        "à¦Ĺà¦Ĩà¦īà¦Ł",
        -14.152404235811666
      ],
      [
        "Ġsentence",
        -14.152717020466458
      ],
      [
        "Ġaway",
        -14.152807041811567
      ],
      [
        "Ġ{",
        -14.153079293087684
      ],
      [
        "Ġà§§à§®à§«",
        -14.153273074333946
      ],
      [
        "Ġà¦ĩà¦¶à¦°",
        -14.153890823296772
      ],
      [
        ";(",
        -14.154147084151578
      ],
      [
        "à§¨à§¦à§¦à§¨",
        -14.154251326145767
      ],
      [
        "Ġgive",
        -14.154601469020985
      ],
      [
        "ÑĢÐ·ÐĳÑĢÐ¶",
        -14.156257440656761
      ],
      [
        "Ġà¦Ĩà¦¹à¦®à¦¦à¦ķ",
        -14.160506093524646
      ],
      [
        "est",
        -14.161653905569665
      ],
      [
        "à§İà¦ľ",
        -14.162515398533568
      ],
      [
        "Ġà§¨à§¦à§¨à§¨",
        -14.162552839597616
      ],
      [
        "...à¥¤",
        -14.16333411476895
      ],
      [
        "Ġnever",
        -14.163832066812905
      ],
      [
        "Ġnumber",
        -14.163832072429573
      ],
      [
        "Ġà§§à§Ńà§ª",
        -14.166716378405239
      ],
      [
        "Ġà§§à§¯à§¬à§ª",
        -14.167662060003973
      ],
      [
        "Ġorder",
        -14.16786445476608
      ],
      [
        "Ġà§§à§¯à§«à§ª",
        -14.169563655223264
      ],
      [
        "à§ĭâĢĻà¥¤",
        -14.171786408838049
      ],
      [
        "Ġthen",
        -14.172674272992598
      ],
      [
        "Ġthrough",
        -14.175033697489871
      ],
      [
        "Ġcannot",
        -14.176900772719602
      ],
      [
        "goo",
        -14.177722480681616
      ],
      [
        "à¥¤...",
        -14.179926053108309
      ],
      [
        "Ġspeech",
        -14.180658353984306
      ],
      [
        "à¦£à¦ĺ",
        -14.182189033480785
      ],
      [
        "à¦¥à¦Ł",
        -14.182909288659586
      ],
      [
        "Ġà¦ıà¦®à¦Ĩà¦ĩ",
        -14.182912514115703
      ],
      [
        "Ġà§§à§¯à§¬à§«",
        -14.183063641441324
      ],
      [
        "à¦¤à§İà¦ªà¦°à¦¤",
        -14.18333192142103
      ],
      [
        "Ġà§§à§¬à§®",
        -14.1837617648078
      ],
      [
        "à§¯à§®",
        -14.185409773678106
      ],
      [
        "Ġà¦Ĭà¦·",
        -14.18627373954479
      ],
      [
        "or",
        -14.18793712912915
      ],
      [
        "Ġà§§à§Ńà§¨",
        -14.190080125123991
      ],
      [
        "ndirect",
        -14.190342947136823
      ],
      [
        "Ġà§§à§¯à§©",
        -14.190677407173318
      ],
      [
        "à§Ńà§¦à§¦",
        -14.190812188282663
      ],
      [
        "Ġà§§à§Ńà§Ń",
        -14.193270753553188
      ],
      [
        "Ġà§§à§®à§¨",
        -14.193408101187298
      ],
      [
        "Ġà§©à§Ńà§¦",
        -14.19370397759073
      ],
      [
        "ĠWhere",
        -14.194027723131168
      ],
      [
        "Ġà¦īà¦ªà¦Ĺ",
        -14.194517747107948
      ],
      [
        "Ġà¦¬à¦²à¦¬à§İ",
        -14.194627472941452
      ],
      [
        "Ġpoor",
        -14.195864427215566
      ],
      [
        "ĠO",
        -14.196594195051928
      ],
      [
        "Ġwant",
        -14.197396847355222
      ],
      [
        "Ġbody",
        -14.197781232520233
      ],
      [
        "Ġà§§à§¯à§¬à§®",
        -14.197909887077248
      ],
      [
        "à§ĢâĢĵ",
        -14.198146253163468
      ],
      [
        "ce",
        -14.198961976160543
      ],
      [
        "Ġà§¨à§¯à§¦",
        -14.199580215703275
      ],
      [
        "Ġthese",
        -14.199706521328647
      ],
      [
        "ıà¦ĩà¦ļà¦Ĩà¦°à¦¡",
        -14.20047971476247
      ],
      [
        "Ġwriting",
        -14.203543408670885
      ],
      [
        "Ġà§¨à§¦à§ªà§",
        -14.204698796007307
      ],
      [
        "Ġà§¨à§¦à§§",
        -14.205369885998692
      ],
      [
        "Ġpresent",
        -14.20549014237462
      ],
      [
        "à¦ĩà¦°à¦¹",
        -14.205498192695154
      ],
      [
        "à¦ħà¦¬à¦¸à¦°",
        -14.206089516761992
      ],
      [
        "à§¦à§©",
        -14.20619671532933
      ],
      [
        "à¦¼à¦¾;",
        -14.206435288259637
      ],
      [
        "Ġà¦ĵà¦ıà¦¸",
        -14.207571195172633
      ],
      [
        "became",
        -14.209527197840679
      ],
      [
        "Ġà¦ľà¦²à¦ľ",
        -14.212198285493272
      ],
      [
        "Ġking",
        -14.213275973279455
      ],
      [
        "Ġà§§à§¯à§¬à§Ń",
        -14.213347148607468
      ],
      [
        "ĠR",
        -14.214617321505266
      ],
      [
        "Ġlot",
        -14.215410693429863
      ],
      [
        "Ġà§§à§¯à§«à§®",
        -14.215791902256683
      ],
      [
        "Ġà§§à§¬à§©",
        -14.216437322891304
      ],
      [
        "Ġsomething",
        -14.217127243604526
      ],
      [
        "à¦®à¦Ĺà¦¡",
        -14.217499075843099
      ],
      [
        "à¦«à¦ľà¦²",
        -14.218105525759706
      ],
      [
        "ÑĢÐ¶Ð¼ÑĢÐ·ÐĹ",
        -14.218349665885093
      ],
      [
        "Ġà¦ıà¦²à¦Ĩà¦°",
        -14.220030066618381
      ],
      [
        "Ġà§©à§©à§¦",
        -14.22354772461648
      ],
      [
        "Ġdays",
        -14.223978249176238
      ],
      [
        "Ġ12",
        -14.22747796031083
      ],
      [
        "à¦¥à¦¬à¦¹",
        -14.228632164069444
      ],
      [
        "ĠâĢĮâĢĺ",
        -14.228948623017029
      ],
      [
        "Ġnew",
        -14.22969465605313
      ],
      [
        "Ġfound",
        -14.230967945842396
      ],
      [
        "ity",
        -14.23177913907457
      ],
      [
        "Ġà¦Ĩà¦ĩà¦",
        -14.234116813996865
      ],
      [
        "Ġà¦§à¦®à¦ķ",
        -14.235964292441404
      ],
      [
        "Ġsaw",
        -14.237041290281095
      ],
      [
        "à¦Ĩà¦ĩà¦ķ",
        -14.237150974963923
      ],
      [
        "à¦¶à¦¨à¦ĵ",
        -14.2391974097218
      ],
      [
        "Ġà¦¦à¦®à¦ķà¦²",
        -14.23962441290508
      ],
      [
        "Ġtoo",
        -14.239635739386863
      ],
      [
        "Ġà§¨à§«à§¬",
        -14.240365384516622
      ],
      [
        "Ġà§¯à§«à§¦",
        -14.241724320088576
      ],
      [
        "M",
        -14.243589762648483
      ],
      [
        "à¦ľà¦Ĩà¦ª",
        -14.244767754955674
      ],
      [
        "Ġread",
        -14.246242054212356
      ],
      [
        "à§Ńà§¯",
        -14.246322824387276
      ],
      [
        "the",
        -14.246731077732148
      ],
      [
        "Ġland",
        -14.246923407488882
      ],
      [
        "Ġà§§à§¨à§¦à§¦",
        -14.247791070828962
      ],
      [
        "Ġà¦¦à¦²à¦¬à¦²",
        -14.247908375551301
      ],
      [
        "Ġà¦¶à¦®à¦¸",
        -14.249895912212587
      ],
      [
        "Ġà¦¦à¦¶à¦ľà¦¨",
        -14.250358063707264
      ],
      [
        "à¦Ĩà¦°à¦ĩà¦ī",
        -14.250537948786015
      ],
      [
        "Ġlove",
        -14.252281361989048
      ],
      [
        "Ġgot",
        -14.252808262932945
      ],
      [
        "Ġlives",
        -14.253035589974157
      ],
      [
        "Ġà¦Ĩà¦īà¦²",
        -14.254384930265587
      ],
      [
        "Ġà¦ħà¦¸à¦ļ",
        -14.256629184667462
      ],
      [
        "Ġfind",
        -14.256657710635375
      ],
      [
        "F",
        -14.258213826228879
      ],
      [
        "Ġà¦¦à¦²à¦Ĺà¦¤",
        -14.259549319751132
      ],
      [
        "à¥¤âĢĶ",
        -14.260158579455886
      ],
      [
        "R",
        -14.261705018219345
      ],
      [
        "ĠRead",
        -14.261742833857554
      ],
      [
        "Ġcountries",
        -14.263135345590078
      ],
      [
        "Ġwanted",
        -14.263158469940862
      ],
      [
        "ÑĢÐ·Ð¯",
        -14.26420046416684
      ],
      [
        "Ġagain",
        -14.265183684599357
      ],
      [
        "Ġà§§à§¯à§®",
        -14.265857991737889
      ],
      [
        "Ġà¦¦à¦²à¦®à¦¤",
        -14.266083423866599
      ],
      [
        "à¦¦à¦¨à¦¹",
        -14.266481982168354
      ],
      [
        "Ġà§¨à§¨à§¨",
        -14.267470498946995
      ],
      [
        "à¦Ĩà¦ĩà¦¨à¦¶",
        -14.267943471830243
      ],
      [
        "Ġv",
        -14.269900348530033
      ],
      [
        "Ġà¦Ĩà¦«à¦Ľ",
        -14.270101662422094
      ],
      [
        "à¦ħà¦ªà¦¹à¦°à¦£",
        -14.271412249276604
      ],
      [
        "Ġà¦Ľà¦Łà¦«à¦Ł",
        -14.27196617738192
      ],
      [
        "Ġà§§à§¯à§¨",
        -14.272641633727872
      ],
      [
        "Ġgaps",
        -14.27344887158864
      ],
      [
        "ĠH",
        -14.273495002162054
      ],
      [
        "à¦Ĩà¦ĩà¦ıà¦²à¦ĵ",
        -14.273521835397158
      ],
      [
        "à¦ĩà¦®à¦ļà¦°",
        -14.27389246657183
      ],
      [
        "ry",
        -14.273993333617325
      ],
      [
        "Ġdown",
        -14.275540086240452
      ],
      [
        "be",
        -14.277206632678437
      ],
      [
        "Ġà¦°à¦ľà¦¤",
        -14.27829207947807
      ],
      [
        "...âĢĻ",
        -14.278299513519205
      ],
      [
        "make",
        -14.278969707308487
      ],
      [
        "à¦ħà¦¸à¦®",
        -14.278973313187432
      ],
      [
        "Ġà§¨à§§à§«",
        -14.279737020714554
      ],
      [
        "Ġà¦Ńà¦°à¦ª",
        -14.280435343047305
      ],
      [
        "Ġà¦ħà¦¨à¦¬à¦°à¦¤",
        -14.28047220172719
      ],
      [
        "D",
        -14.280639099317181
      ],
      [
        "à¦¨à¦§à¦°",
        -14.28254191959209
      ],
      [
        "Ġà¦Ĩà¦ĩà¦ĩà¦ī",
        -14.282578117302847
      ],
      [
        "Ġà¦ĩà¦īà¦Ľ",
        -14.282955799584954
      ],
      [
        "Ġà¦ķà¦¸à¦°à¦¤",
        -14.28396576933218
      ],
      [
        "à¦¹à¦ķà¦¸",
        -14.285084496805892
      ],
      [
        "Ġplay",
        -14.28539570021842
      ],
      [
        "ÑĢÐ¶Ð½ÑĢÐ¶",
        -14.286358390101716
      ],
      [
        "à¦ıà¦ķà¦¬",
        -14.287274415595064
      ],
      [
        "Ġkind",
        -14.28823699371046
      ],
      [
        "à¦·à¦£à¦¸à¦¹",
        -14.289540111505648
      ],
      [
        "Ġà§§à§¬à§¯",
        -14.290367954619555
      ],
      [
        "à¦¸à¦«à¦²",
        -14.290658541900044
      ],
      [
        "Ġà§§à§Ńà§®",
        -14.29306820332381
      ],
      [
        "Ġà¦¦à¦°à¦Ĺ",
        -14.293585830909107
      ],
      [
        "à¦ĩà¦Ĩà¦°",
        -14.295224118544393
      ],
      [
        "à¦ıà¦Ĩà¦°",
        -14.295844777017354
      ],
      [
        "Ġborn",
        -14.296485239332316
      ],
      [
        "à¦¼à¦ĥ",
        -14.296507831751672
      ],
      [
        "Ġà§§à§®à§ª",
        -14.297277333301249
      ],
      [
        "Ġà¦Ķà¦",
        -14.297325552480142
      ],
      [
        "Ġresult",
        -14.29858629424473
      ],
      [
        "Ġà§©à§¬à§«",
        -14.29859450832045
      ],
      [
        "à¦ĸà¦¸à¦¹",
        -14.301323639017994
      ],
      [
        "à¦£à¦ļà¦°",
        -14.302207329522233
      ],
      [
        "à¦¿âĢĭ",
        -14.302297615771952
      ],
      [
        "ĠG",
        -14.30296367917671
      ],
      [
        "Ġà§¨à§¦à§ª",
        -14.303327836668384
      ],
      [
        "à¦²à¦¶à¦¹à¦°",
        -14.303692896044168
      ],
      [
        "Ġmeaning",
        -14.304236243959537
      ],
      [
        "Ġà§§à§¯à§¯",
        -14.306109105315944
      ],
      [
        "ÑĢÐ¶ÐĴÑĢÐ¶",
        -14.30682338689552
      ],
      [
        "Ġà¦ĸà¦¬à¦°à¦ĵ",
        -14.306883816868176
      ],
      [
        "à¥¤âĢ¢",
        -14.307973013779565
      ],
      [
        "Ġà¦ĺà¦¨à¦¤",
        -14.308105419478515
      ],
      [
        "à¦¼...",
        -14.308790134663914
      ],
      [
        "Ġà¦ľà¦²à¦®à¦¹",
        -14.309041545391134
      ],
      [
        "Ġactivities",
        -14.311362699217014
      ],
      [
        "Ġcorrect",
        -14.311382421747169
      ],
      [
        "à¦ªà¦¥à¦Ĺ",
        -14.31142318443587
      ],
      [
        "N",
        -14.311568194648661
      ],
      [
        "Ġà¦¶à¦ªà¦¥à¦¬",
        -14.312335581582065
      ],
      [
        "Ġyear",
        -14.31303770500304
      ],
      [
        "Ġsmall",
        -14.313513238628001
      ],
      [
        "Ġdoctor",
        -14.315658761864473
      ],
      [
        "Ġmind",
        -14.316424987998793
      ],
      [
        "ting",
        -14.317466740517581
      ],
      [
        "Ġà§¨à§§à§Ń",
        -14.320213629444815
      ],
      [
        "Ġà¦°à¦¸à¦¦",
        -14.32026622674045
      ],
      [
        "à¦ĩà¦īà¦¡",
        -14.322597211677166
      ],
      [
        "à¦®à¦£à¦ª",
        -14.322738355570738
      ],
      [
        "à¦ħà¦ªà¦Ľ",
        -14.323727916643769
      ],
      [
        "à¦Ĩà¦°à¦ıà¦®",
        -14.325458717012875
      ],
      [
        "Ġboth",
        -14.32651197985659
      ],
      [
        "Ġà¦Ĺà¦¡à¦«",
        -14.326882021812619
      ],
      [
        "à¥¤âĢĿ",
        -14.328132032209192
      ],
      [
        "à¦īà¦ıà¦ĩà¦ļà¦ĵ",
        -14.328250097368686
      ],
      [
        "Ġà§¨à§¨à§ª",
        -14.328616382923663
      ],
      [
        "à¦¡à¦ıà¦«",
        -14.329830567490855
      ],
      [
        "_",
        -14.330357748707051
      ],
      [
        "Ġà¦ıà¦ķà¦Ŀ",
        -14.33075689537066
      ],
      [
        "Ġanother",
        -14.33088792488116
      ],
      [
        "à¦°à¦£à¦¸à¦¹",
        -14.331306090888589
      ],
      [
        "ÑĢÐ¶Ð¥ÑĢÐ·ÐĹ",
        -14.331352823209107
      ],
      [
        "à¦¿à¥¤*",
        -14.331535299062914
      ],
      [
        "à¦¼!âĢĻ",
        -14.332307648350888
      ],
      [
        "à§§à§¯à§¯à§¯",
        -14.332671826029888
      ],
      [
        "à¦ĩà¦¨à¦¸à¦¹",
        -14.332969479228023
      ],
      [
        "Ġà¦¦à¦®à¦ķ",
        -14.333469143167877
      ],
      [
        "à¦¶à¦¨à¦ľà¦Ł",
        -14.336270460072805
      ],
      [
        "Ġvisit",
        -14.336671392758987
      ],
      [
        "à¦¸à¦«à¦°",
        -14.337499409282277
      ],
      [
        "ĠPeople",
        -14.339717743909784
      ],
      [
        "à¦ıà¦ķà¦",
        -14.341536307111411
      ],
      [
        "Ġcity",
        -14.341935258471958
      ],
      [
        "ĠQues",
        -14.344185634219262
      ],
      [
        "Ġà¦ıà¦ķà¦ľà¦¨à¦ĩ",
        -14.344429268650597
      ],
      [
        "Ġfish",
        -14.346335386923037
      ],
      [
        "Ġà§§à§Ńà§©",
        -14.346634822327196
      ],
      [
        "Ġj",
        -14.34786582138839
      ],
      [
        "Ġà¦ıà¦®à¦ıà¦¸",
        -14.34792932079787
      ],
      [
        "Ġà¦īà¦ľà¦¬",
        -14.34833769453435
      ],
      [
        "Ġà§§à§¯à§«à§¬",
        -14.349002647909758
      ],
      [
        "Ġà§§à§®à§Ń",
        -14.349014013621424
      ],
      [
        "Ġbeing",
        -14.350838150381115
      ],
      [
        "Ġà§¨à§©à§ª",
        -14.351885936853895
      ],
      [
        "à¦Ĩà¦ļà¦°à¦£",
        -14.352922072350474
      ],
      [
        "Ġback",
        -14.35532110952498
      ],
      [
        "Ġparents",
        -14.355325869314772
      ],
      [
        "ĠMy",
        -14.355492400014255
      ],
      [
        "ĠColum",
        -14.355516401995041
      ],
      [
        "à§Ģ?âĢĻ",
        -14.355813899900017
      ],
      [
        "Ġà¦ĺà¦¨à¦¬à¦¸",
        -14.356750040754974
      ],
      [
        "Ġà¦Ĺà¦£à¦¯",
        -14.359784374174676
      ],
      [
        "Ġtown",
        -14.359789476515008
      ],
      [
        "Ġdon",
        -14.36027256608876
      ],
      [
        "ÑĢÐ·ÐĿÑĢÐ¶",
        -14.360440947912188
      ],
      [
        "Ġà§©à§¦à§ª",
        -14.361492452755535
      ],
      [
        "Ġà¦¸à¦¨à¦¦à¦ª",
        -14.362021055293248
      ],
      [
        "ĠW",
        -14.362417666076022
      ],
      [
        "ir",
        -14.362562080373472
      ],
      [
        "Ġà§§à§®à§§",
        -14.363955412581282
      ],
      [
        "Ġput",
        -14.364406753872817
      ],
      [
        "à¦¾*",
        -14.364597712134241
      ],
      [
        "Ġà§§à§¯à§¬à§§",
        -14.368992420742499
      ],
      [
        "Ġà§§à§®à§©",
        -14.37057876749782
      ],
      [
        "Ġà§¨à§¦à§¨",
        -14.37240751396139
      ],
      [
        "Ġà¦Ĩà¦²à¦®à¦¡",
        -14.372748807004841
      ],
      [
        "Ġà§§à§®à§®",
        -14.374090407686234
      ],
      [
        "à§ĢâĢĻ,",
        -14.374522003495404
      ],
      [
        "re",
        -14.37627725841773
      ],
      [
        "Ġà§§à§¯à§¬",
        -14.376495198207081
      ],
      [
        "Ġà¦Ĩà¦ľà¦®à¦¤",
        -14.37656277962174
      ],
      [
        "à¦ľà¦²à¦īà¦¡",
        -14.376967456154425
      ],
      [
        "à¦Ĩà¦²à¦®à¦Ĺ",
        -14.377001352823491
      ],
      [
        "Ġà¦°à¦ĵà¦¨à¦ķ",
        -14.377923887555127
      ],
      [
        "Ġà¦ĵà¦¸à¦¬",
        -14.380087481624424
      ],
      [
        "ł",
        -14.381029755263238
      ],
      [
        "à¦Ĩà¦ĩà¦ıà¦°",
        -14.381126993204838
      ],
      [
        "Ġà¦¶à¦°à¦«",
        -14.38131684726257
      ],
      [
        "à¦ļà¦¦à¦¶",
        -14.381333790067394
      ],
      [
        "Ġà¦ļà¦°à¦Ńà¦",
        -14.381442852591661
      ],
      [
        "à¦ķà¦¶à¦ª",
        -14.382606594437398
      ],
      [
        "Ġà¦Ĩà¦ªà¦¨à¦ľà¦¨",
        -14.382707378582172
      ],
      [
        "ĠÑĢÐ¶ÐŁÑĢÐ¶Ð¥",
        -14.38292959770072
      ],
      [
        "à¦¦à¦°à¦ªà¦²",
        -14.383304815777954
      ],
      [
        "Ġà§§à§¯à§ªà§«",
        -14.383355242289092
      ],
      [
        "Ġstarted",
        -14.384899538401253
      ],
      [
        "à¦ıà¦²à¦¡",
        -14.38741101619604
      ],
      [
        "Ġmen",
        -14.388554826458892
      ],
      [
        "Ġà§§à§¯à§§",
        -14.388625340256766
      ],
      [
        "Ġchange",
        -14.389518181536873
      ],
      [
        "Ġà§¨à§Ńà§«",
        -14.390961257759425
      ],
      [
        "à¦Ĺà¦£à¦ª",
        -14.390997135032599
      ],
      [
        "à¦§à¦°à¦¨",
        -14.394322572632863
      ],
      [
        "à¦ķà¦ľà¦®à¦ķ",
        -14.395780857937385
      ],
      [
        "à¦ıà¦ĩà¦ļà¦ıà¦¸",
        -14.396299964837537
      ],
      [
        "day",
        -14.39655772403871
      ],
      [
        "à¦¬à¦ľà¦¨à¦ª",
        -14.396881009848443
      ],
      [
        "Ġà¦ĩà¦Ĺà¦²",
        -14.397099898057057
      ],
      [
        "à¦£à¦¸à¦®",
        -14.398227433307087
      ],
      [
        "ĠN",
        -14.398544396872893
      ],
      [
        "Ġà§Ńà§Ńà§Ń",
        -14.398614759939974
      ],
      [
        "à¦·à¦ªà¦¥",
        -14.399768833627148
      ],
      [
        "Ġà¦ıà¦®à¦ıà¦²",
        -14.400064727546132
      ],
      [
        "Ġà¦¬à¦ĩà¦ª",
        -14.400735645246632
      ],
      [
        "à¦ıà¦ĩà¦ļà¦Ĩà¦°",
        -14.401517089454567
      ],
      [
        "le",
        -14.402173007920577
      ],
      [
        "ra",
        -14.402182224725122
      ],
      [
        "à¦Ĩà¦Łà¦Ł",
        -14.405380348948338
      ],
      [
        "ĠâĢį",
        -14.405806744297495
      ],
      [
        "Ġmain",
        -14.40601638540359
      ],
      [
        "Ġcom",
        -14.406433721162617
      ],
      [
        "Ġrivers",
        -14.40694608777126
      ],
      [
        "Ġà¦ħà¦ľà¦¸",
        -14.407116457630442
      ],
      [
        "Ġreading",
        -14.408297601790721
      ],
      [
        "Ġusing",
        -14.408359987495079
      ],
      [
        "Ġà§©à§ªà§¦",
        -14.408410836425954
      ],
      [
        "en",
        -14.409101285182443
      ],
      [
        "Ġà§¨à§¦à§©",
        -14.409774667112327
      ],
      [
        "à¦¥à¦¸à¦¹",
        -14.410228570918822
      ],
      [
        "ĠT",
        -14.410424764132792
      ],
      [
        "K",
        -14.411259824271252
      ],
      [
        "à¦¯à¦Łà¦¨à¦¶",
        -14.412104202540906
      ],
      [
        "11",
        -14.412296472654019
      ],
      [
        "Ġà¦ªà¦¦à¦¦à¦²",
        -14.413314421293236
      ],
      [
        "Ġà¦¡à¦¬à¦²",
        -14.414172707694487
      ],
      [
        "à¦ıà¦ķà¦ªà¦°",
        -14.415846589063376
      ],
      [
        "Ġà§§à§¯à§Ń",
        -14.416670355726112
      ],
      [
        "Ġà§¨à§¦à§¬",
        -14.417804287873428
      ],
      [
        "Ġhealthy",
        -14.417879551589008
      ],
      [
        "ıà¦¸à¦Ĩà¦°à¦ıà¦®",
        -14.418887152001126
      ],
      [
        "Ġknowledge",
        -14.420211761509158
      ],
      [
        "Ġenjoy",
        -14.422587233149311
      ],
      [
        "Ġlion",
        -14.422728459478005
      ],
      [
        "âĸ",
        -14.424992166555954
      ],
      [
        "T",
        -14.425334922974631
      ],
      [
        "à¦ıà¦«à¦Ł",
        -14.425450916245575
      ],
      [
        "ÑĢÐ¶ÐĹ",
        -14.425456956236012
      ],
      [
        "à§§à§¯à§¯à§®",
        -14.425980709531975
      ],
      [
        "Make",
        -14.426876928615812
      ],
      [
        "Ġà¦īà¦ĩà¦",
        -14.42713052396046
      ],
      [
        "Ġown",
        -14.429668240367555
      ],
      [
        "?âĢĺ",
        -14.429828757473505
      ],
      [
        "Ġoften",
        -14.42982924054541
      ],
      [
        "Ġcommon",
        -14.429858516947702
      ],
      [
        "Ġà§¨à§ªà§¨",
        -14.430557771508422
      ],
      [
        "âĢĻâĢĻ",
        -14.431411631479005
      ],
      [
        "Ġpaper",
        -14.431998164554436
      ],
      [
        "Ġà§¨à§©à§«",
        -14.432576919971833
      ],
      [
        "à¦Ĩà¦¸à¦ķ",
        -14.43394681879708
      ],
      [
        "Ġà§§à§¯à§ª",
        -14.434512165356104
      ],
      [
        "ÑĢÐ¶Ð£",
        -14.435036400046792
      ],
      [
        "Ġà§§à§Ńà§¯",
        -14.435593895589179
      ],
      [
        "Ġà§¨à§¦à§¯",
        -14.436892825942044
      ],
      [
        "Ġ>",
        -14.437112732609606
      ],
      [
        "à¦¿):",
        -14.437473115638577
      ],
      [
        "à¦Ńà¦²à¦¬",
        -14.438094607056872
      ],
      [
        "à¦Ĩà¦ļ",
        -14.438888566451146
      ],
      [
        "Ġanimals",
        -14.439552207451353
      ],
      [
        "ÑĢÐ¶Ð¼",
        -14.441874750148614
      ],
      [
        "à¦¼à¦¾âĢĻà¥¤",
        -14.44291765208048
      ],
      [
        "ĠK",
        -14.443101489046535
      ],
      [
        "Ġvi",
        -14.446254567183015
      ],
      [
        "Ġà§¨à§©à§¯",
        -14.446666678067883
      ],
      [
        "Ġà¦¸à¦«à¦Ł",
        -14.446887628330252
      ],
      [
        "à¦°à¦¶à¦®à¦¨",
        -14.44709940282164
      ],
      [
        "Ġà§¨à§©à§¨",
        -14.447933398805546
      ],
      [
        "Ġthink",
        -14.449382576465538
      ],
      [
        "à¦²à¦¦à¦¹",
        -14.45230490178204
      ],
      [
        "Ġà¦ħà¦ľà¦Ĺà¦°",
        -14.452327563560647
      ],
      [
        "Ġà§©à§§à§¦",
        -14.452996390089814
      ],
      [
        "Ġage",
        -14.45367684125205
      ],
      [
        "Ġnatural",
        -14.454316080455467
      ],
      [
        "Ġà¦Ĩà¦ĩà¦¤",
        -14.455443273755971
      ],
      [
        "ĠF",
        -14.455569557360045
      ],
      [
        "Ġà¦Ĩà¦¦à¦®à¦ľ",
        -14.455962999243415
      ],
      [
        "Ġnation",
        -14.45618104774826
      ],
      [
        "ever",
        -14.456708458337072
      ],
      [
        "ÑĢÐ·ÐĿÑĢÐ¶Ð¼ÑĢÐ¶",
        -14.457236953123033
      ],
      [
        "Ġlearn",
        -14.459035544104033
      ],
      [
        "Ġà¦ļà¦²à¦¨à¦¬",
        -14.459285902736784
      ],
      [
        "Ġà§ªà§®à§¦",
        -14.459767518821662
      ],
      [
        "Ġriver",
        -14.460678995476673
      ],
      [
        "Ġà§§à§¯à§«à§©",
        -14.4612106540662
      ],
      [
        "Ġà¦ħà¦¹à¦¨",
        -14.461855872697225
      ],
      [
        "ĠAn",
        -14.464583656323859
      ],
      [
        "à¥¤ïģ®",
        -14.465868964143642
      ],
      [
        "Ġà¦ħà¦¨à¦¬à¦",
        -14.465967004731603
      ],
      [
        "G",
        -14.466761348745084
      ],
      [
        "Ġtalk",
        -14.466865362062375
      ],
      [
        "à¦¼à§Ģ)",
        -14.467268584124135
      ],
      [
        "Ġà§§à§«à§¦à§¦",
        -14.468696149649883
      ],
      [
        "Ġcomputer",
        -14.469301571555398
      ],
      [
        "à¦¸à¦¨à¦¸à¦¹",
        -14.470854958564601
      ],
      [
        "à¦ıà¦®à¦ıà¦¸",
        -14.47160071222494
      ],
      [
        "Ġà§¨à§Ńà§¨",
        -14.472054006515222
      ],
      [
        "self",
        -14.472516045071913
      ],
      [
        "Ġevery",
        -14.476858634341077
      ],
      [
        "Ġfree",
        -14.476884560017742
      ],
      [
        "Ġlived",
        -14.476944050590259
      ],
      [
        "Ġ---",
        -14.476962777708794
      ],
      [
        "Ð«ÑĢÐ·ÐĹÑĢÐµÐ´",
        -14.477304094369817
      ],
      [
        "à¦Ĩà¦ĩà¦ıà¦®",
        -14.47735827150811
      ],
      [
        "Ġà§¨à§¨à§¬",
        -14.47844335373253
      ],
      [
        "Ġà§¨à§§à§¬",
        -14.480235780557178
      ],
      [
        "Ġà§§à§¯à§¬à§©",
        -14.481017271960415
      ],
      [
        "Ġà§¨à§§à§¨",
        -14.481752301298378
      ],
      [
        "Ġsound",
        -14.481897788430807
      ],
      [
        "Ġà§¨à§§à§©",
        -14.483231305798448
      ],
      [
        "ÑĢÐ·ÐĲ",
        -14.483912161671489
      ],
      [
        "Ġà¦°à¦ľà¦¬",
        -14.484846148583621
      ],
      [
        "Ġà§§à§®à§¬",
        -14.485075173439157
      ],
      [
        "à¦®à¦¦à¦®",
        -14.486399647010003
      ],
      [
        "Ġà§©à§®à§¦",
        -14.48645729601376
      ],
      [
        "We",
        -14.488428969665824
      ],
      [
        "Ġrich",
        -14.488639079649044
      ],
      [
        "Ġsea",
        -14.48888638099136
      ],
      [
        "ĠâķĽ.",
        -14.490653246178335
      ],
      [
        "ĠAll",
        -14.491891147746944
      ],
      [
        "à§§à§¯à§¯à§§",
        -14.494234538377658
      ],
      [
        "Ġstudy",
        -14.494773083892989
      ],
      [
        "Ġothers",
        -14.494973013459262
      ],
      [
        "à¦¼à§Ī",
        -14.495195757113173
      ],
      [
        "à¦Ĩà¦¹à¦®",
        -14.495666880891346
      ],
      [
        "Ġbirds",
        -14.499976488390192
      ],
      [
        "à¦Ĩà¦Ľ",
        -14.500182896023109
      ],
      [
        "Ġtoday",
        -14.500511328263709
      ],
      [
        "à¦ıà¦«à¦ĵ",
        -14.500686170274074
      ],
      [
        "Ġà§¨à§§à§ª",
        -14.50150571796632
      ],
      [
        "Ġà¦Ĩà¦ĩà¦ıà¦¸à¦ª",
        -14.50164146266472
      ],
      [
        "à¦¬à¦ıà¦ĩà¦¡",
        -14.5020249595466
      ],
      [
        "à¦Ĩà¦ĩà¦ıà¦¸à¦ª",
        -14.502317351963137
      ],
      [
        "Ġbig",
        -14.50253013022137
      ],
      [
        "Ġaround",
        -14.5025359827882
      ],
      [
        "Ġinformation",
        -14.502550595869918
      ],
      [
        "Ġà§¨à§¦à§®",
        -14.502638867716515
      ],
      [
        "Ġà§¨à§¦à§Ń",
        -14.504401009138965
      ],
      [
        "à¦ıà¦ķà¦¤à¦°à¦«",
        -14.504652527532887
      ],
      [
        "à¦ıà¦Ĩà¦ĩ",
        -14.504986741443306
      ],
      [
        "à¦ıà¦¸à¦ıà¦®",
        -14.505720583332002
      ],
      [
        "à¦īà§İà¦ķ",
        -14.506615919168386
      ],
      [
        "Ġà¦Ĩà¦¸à¦Ĺà¦°",
        -14.506769371037414
      ],
      [
        "Ġlittle",
        -14.507746055282603
      ],
      [
        "Ġevent",
        -14.50903408753262
      ],
      [
        ":âĢĺ",
        -14.509794200731122
      ],
      [
        "ĠAfter",
        -14.510426429355572
      ],
      [
        "à¦¡à¦Łà¦ķà¦®",
        -14.5126229581931
      ],
      [
        "à¦ıà¦²à¦Ĩà¦°",
        -14.514020742389608
      ],
      [
        "Ġà§¨à§¨à§Ń",
        -14.5141186000459
      ],
      [
        "Ġà¦ĩà¦Ĩà¦°",
        -14.515073582974225
      ],
      [
        "à¦¿âĢĻ-",
        -14.51577960715191
      ],
      [
        "âĢĿà¥¤",
        -14.517278434435141
      ],
      [
        "à¦®à¦ķà¦Ń",
        -14.51733024765075
      ],
      [
        "Ġhand",
        -14.517824491951465
      ],
      [
        "san",
        -14.518712967217557
      ],
      [
        "à¦¸à¦®à¦Ŀ",
        -14.5195309293564
      ],
      [
        "à§§à§¯à§¯à§¦",
        -14.520001231717
      ],
      [
        "Ġcause",
        -14.520122936187349
      ],
      [
        "Ġyoung",
        -14.5205882966847
      ],
      [
        "ÑĢÐ·ÐĽ",
        -14.52117403333451
      ],
      [
        "Ġpart",
        -14.523438411946852
      ],
      [
        "Ġlist",
        -14.5236887310366
      ],
      [
        "Ġà¦§à¦¨à¦ķ",
        -14.527059976594703
      ],
      [
        "Ġà¦ıà¦¨à¦ı",
        -14.527368049219659
      ],
      [
        "ll",
        -14.528134023071678
      ],
      [
        "à¦ħà¦ªà¦°à¦",
        -14.52917795937988
      ],
      [
        "à¦«à¦ĸà¦°",
        -14.529356064830495
      ],
      [
        "à¦¹à¦¤à¦Ń",
        -14.529733962797899
      ],
      [
        "ĠâĢĺ...",
        -14.530520803794829
      ],
      [
        "Ġà¦Ĩà¦¸à¦¨à¦¸",
        -14.532009702898227
      ],
      [
        "ÑĢÐ·ÐĿÑĢÐ¶Ð´ÑĢÐ¶",
        -14.533695582411825
      ],
      [
        "Ġbeautiful",
        -14.534383779935501
      ],
      [
        "Ġ|",
        -14.535268482304147
      ],
      [
        "à¦ªà¦¦à¦¬",
        -14.53847398306457
      ],
      [
        "Ã¿",
        -14.539096968062005
      ],
      [
        "Ġwomen",
        -14.53963358413008
      ],
      [
        "Ġreceive",
        -14.53986202791775
      ],
      [
        "55",
        -14.543192446810012
      ],
      [
        "ıà¦®à¦Ĩà¦°à¦Ĩà¦ĩ",
        -14.545759381932156
      ],
      [
        "âĹ",
        -14.546032672199416
      ],
      [
        "Ġà§¨à§§à§¯",
        -14.546455155820773
      ],
      [
        "&",
        -14.547226217431476
      ],
      [
        "19",
        -14.54737555349704
      ],
      [
        "Ġà¦ĭà¦£à¦¸",
        -14.547752724806365
      ],
      [
        "Ġà§§à§¯à§©à§¦",
        -14.550368979641295
      ],
      [
        "Ġpopular",
        -14.553227155078293
      ],
      [
        "Ġsoon",
        -14.555951267219653
      ],
      [
        "ar",
        -14.55682559537399
      ],
      [
        "ĠSima",
        -14.558820245769843
      ],
      [
        "ĠÑĢÐ¶Ð¬ÑĢÐ¶",
        -14.56029915759136
      ],
      [
        "00",
        -14.560385412488532
      ],
      [
        "à¦®à¦¶à¦¤à¦¬",
        -14.561420035560527
      ],
      [
        "ness",
        -14.565639182238165
      ],
      [
        "Ġearly",
        -14.566982711497804
      ],
      [
        "Ġhuman",
        -14.567007260374194
      ],
      [
        "Ġà¦ľà¦ĵà¦¹à¦°",
        -14.56806915255655
      ],
      [
        "ĠSome",
        -14.569781232190037
      ],
      [
        "Ġà§¨à§¨à§®",
        -14.569811830849746
      ],
      [
        "Ġshow",
        -14.571688458772762
      ],
      [
        "Ġà§¨à§¨à§¯",
        -14.572136812747726
      ],
      [
        "Ġwh",
        -14.572177657758083
      ],
      [
        "Ġà§¨à§©à§Ń",
        -14.574269632177113
      ],
      [
        "Ġà¦«à¦°à¦ľ",
        -14.574780778822443
      ],
      [
        "*)",
        -14.57511649989712
      ],
      [
        "à¦¼à¦¾!",
        -14.575938818973608
      ],
      [
        "à§ĭ?âĢĻ",
        -14.576581127107344
      ],
      [
        "Ġ(âĢĺ",
        -14.57691679638964
      ],
      [
        "Â",
        -14.577531829803114
      ],
      [
        "Ġsame",
        -14.580949475975515
      ],
      [
        "Ġà¦ıà¦ĩà¦ļà¦Ĩà¦°",
        -14.581825062234888
      ],
      [
        "Ġà¦ħà¦ĺ",
        -14.582489920229232
      ],
      [
        "Ġà¦ĩà¦¸à¦®à¦¤",
        -14.583589909528179
      ],
      [
        "Ġà§¨à§®à§¯",
        -14.583785516012496
      ],
      [
        "Ġà¦Łà¦®à¦Łà¦®",
        -14.585637928298675
      ],
      [
        "Ĩà¦ĩà¦ıà¦¸à¦Ĩà¦ĩ",
        -14.586202172387818
      ],
      [
        "Ġuncle",
        -14.58660408691205
      ],
      [
        "Ġ-------",
        -14.586945233918602
      ],
      [
        "Ġà¦ıà¦®à¦ıà¦®",
        -14.588192898254698
      ],
      [
        "30",
        -14.58899657123899
      ],
      [
        "Ġlearning",
        -14.58945009353964
      ],
      [
        "ive",
        -14.591613766507002
      ],
      [
        "ÑĢÐ¶Ð¶ÑĢÐ¶",
        -14.591784158252782
      ],
      [
        "Ġà§¨à§§à§®",
        -14.592765099409423
      ],
      [
        "Ġà§¨à§®à§«",
        -14.592862945411586
      ],
      [
        "ĵà¦ıà¦ĩà¦ļà¦ıà¦¸",
        -14.592991276903247
      ],
      [
        "Ġà§©à§§à§¨",
        -14.594002527573931
      ],
      [
        "à§§à§¯à§¯à§Ń",
        -14.594164892445551
      ],
      [
        "Ġà§¨à§«à§Ń",
        -14.594470469105946
      ],
      [
        "à¦ĩà¦īà¦ıà¦¨à¦¡",
        -14.59477145784134
      ],
      [
        "Ġcolumn",
        -14.595113942869009
      ],
      [
        "Ġfield",
        -14.595129668000904
      ],
      [
        "Ġnight",
        -14.595239379368572
      ],
      [
        "Ġà§¨à§®à§®",
[...]
